#ifndef NUMBER_MODEL_H
#define NUMBER_MODEL_H

unsigned int number_model_len = 6920;
unsigned char number_model[] = {
    0x1c, 0x00, 0x00, 0x00, 0x54, 0x46, 0x4c, 0x33, 0x14, 0x00, 0x20, 0x00,
    0x04, 0x00, 0x08, 0x00, 0x0c, 0x00, 0x10, 0x00, 0x14, 0x00, 0x00, 0x00,
    0x18, 0x00, 0x1c, 0x00, 0x14, 0x00, 0x00, 0x00, 0x03, 0x00, 0x00, 0x00,
    0x18, 0x00, 0x00, 0x00, 0x34, 0x00, 0x00, 0x00, 0x60, 0x01, 0x00, 0x00,
    0x34, 0x00, 0x00, 0x00, 0x08, 0x01, 0x00, 0x00, 0x78, 0x00, 0x00, 0x00,
    0x07, 0x00, 0x00, 0x00, 0xb0, 0x13, 0x00, 0x00, 0x80, 0x12, 0x00, 0x00,
    0x78, 0x11, 0x00, 0x00, 0x84, 0x10, 0x00, 0x00, 0xbc, 0x05, 0x00, 0x00,
    0xac, 0x02, 0x00, 0x00, 0x14, 0x02, 0x00, 0x00, 0x01, 0x00, 0x00, 0x00,
    0x50, 0x01, 0x00, 0x00, 0x12, 0x00, 0x00, 0x00, 0x9c, 0x1a, 0x00, 0x00,
    0x98, 0x1a, 0x00, 0x00, 0x9c, 0x19, 0x00, 0x00, 0x28, 0x17, 0x00, 0x00,
    0xcc, 0x15, 0x00, 0x00, 0x24, 0x15, 0x00, 0x00, 0x98, 0x14, 0x00, 0x00,
    0x80, 0x1a, 0x00, 0x00, 0x7c, 0x1a, 0x00, 0x00, 0x78, 0x1a, 0x00, 0x00,
    0x74, 0x1a, 0x00, 0x00, 0x50, 0x06, 0x00, 0x00, 0x6c, 0x1a, 0x00, 0x00,
    0xd0, 0x03, 0x00, 0x00, 0x64, 0x1a, 0x00, 0x00, 0x60, 0x1a, 0x00, 0x00,
    0x5c, 0x1a, 0x00, 0x00, 0xc4, 0x00, 0x00, 0x00, 0x01, 0x00, 0x00, 0x00,
    0x10, 0x00, 0x00, 0x00, 0x00, 0x00, 0x0a, 0x00, 0x10, 0x00, 0x0c, 0x00,
    0x08, 0x00, 0x04, 0x00, 0x0a, 0x00, 0x00, 0x00, 0x0c, 0x00, 0x00, 0x00,
    0x1c, 0x00, 0x00, 0x00, 0x20, 0x00, 0x00, 0x00, 0x0f, 0x00, 0x00, 0x00,
    0x73, 0x65, 0x72, 0x76, 0x69, 0x6e, 0x67, 0x5f, 0x64, 0x65, 0x66, 0x61,
    0x75, 0x6c, 0x74, 0x00, 0x01, 0x00, 0x00, 0x00, 0x14, 0x00, 0x00, 0x00,
    0x01, 0x00, 0x00, 0x00, 0x2c, 0x00, 0x00, 0x00, 0x08, 0x00, 0x0c, 0x00,
    0x08, 0x00, 0x04, 0x00, 0x08, 0x00, 0x00, 0x00, 0x0f, 0x00, 0x00, 0x00,
    0x04, 0x00, 0x00, 0x00, 0x0e, 0x00, 0x00, 0x00, 0x71, 0x75, 0x61, 0x6e,
    0x74, 0x5f, 0x64, 0x65, 0x6e, 0x73, 0x65, 0x5f, 0x33, 0x31, 0x00, 0x00,
    0x1a, 0xe7, 0xff, 0xff, 0x04, 0x00, 0x00, 0x00, 0x0f, 0x00, 0x00, 0x00,
    0x63, 0x6f, 0x6e, 0x76, 0x32, 0x64, 0x5f, 0x31, 0x38, 0x5f, 0x69, 0x6e,
    0x70, 0x75, 0x74, 0x00, 0x01, 0x00, 0x00, 0x00, 0x0c, 0x00, 0x00, 0x00,
    0x08, 0x00, 0x0c, 0x00, 0x04, 0x00, 0x08, 0x00, 0x08, 0x00, 0x00, 0x00,
    0x08, 0x00, 0x00, 0x00, 0x11, 0x00, 0x00, 0x00, 0x13, 0x00, 0x00, 0x00,
    0x6d, 0x69, 0x6e, 0x5f, 0x72, 0x75, 0x6e, 0x74, 0x69, 0x6d, 0x65, 0x5f,
    0x76, 0x65, 0x72, 0x73, 0x69, 0x6f, 0x6e, 0x00, 0x6a, 0xe7, 0xff, 0xff,
    0x04, 0x00, 0x00, 0x00, 0x10, 0x00, 0x00, 0x00, 0x31, 0x2e, 0x31, 0x34,
    0x2e, 0x30, 0x00, 0x00, 0x00, 0x00, 0x00, 0x00, 0x00, 0x00, 0x00, 0x00,
    0x0f, 0x00, 0x00, 0x00, 0x4d, 0x4c, 0x49, 0x52, 0x20, 0x43, 0x6f, 0x6e,
    0x76, 0x65, 0x72, 0x74, 0x65, 0x64, 0x2e, 0x00, 0x00, 0x00, 0x0e, 0x00,
    0x18, 0x00, 0x04, 0x00, 0x08, 0x00, 0x0c, 0x00, 0x10, 0x00, 0x14, 0x00,
    0x0e, 0x00, 0x00, 0x00, 0x14, 0x00, 0x00, 0x00, 0x54, 0x00, 0x00, 0x00,
    0x58, 0x00, 0x00, 0x00, 0x5c, 0x00, 0x00, 0x00, 0x7c, 0x00, 0x00, 0x00,
    0x10, 0x00, 0x00, 0x00, 0xc8, 0x18, 0x00, 0x00, 0x60, 0x18, 0x00, 0x00,
    0xf4, 0x16, 0x00, 0x00, 0xb8, 0x14, 0x00, 0x00, 0x10, 0x14, 0x00, 0x00,
    0x6c, 0x13, 0x00, 0x00, 0x30, 0x12, 0x00, 0x00, 0xec, 0x10, 0x00, 0x00,
    0xe4, 0x0f, 0x00, 0x00, 0xf0, 0x0e, 0x00, 0x00, 0xfc, 0x0d, 0x00, 0x00,
    0x24, 0x04, 0x00, 0x00, 0x1c, 0x03, 0x00, 0x00, 0xc4, 0x01, 0x00, 0x00,
    0x0c, 0x01, 0x00, 0x00, 0x74, 0x00, 0x00, 0x00, 0x01, 0x00, 0x00, 0x00,
    0x00, 0x00, 0x00, 0x00, 0x01, 0x00, 0x00, 0x00, 0x0f, 0x00, 0x00, 0x00,
    0x08, 0x00, 0x00, 0x00, 0xa8, 0x11, 0x00, 0x00, 0x54, 0x10, 0x00, 0x00,
    0x48, 0x0f, 0x00, 0x00, 0x80, 0x0e, 0x00, 0x00, 0x9c, 0x03, 0x00, 0x00,
    0x5c, 0x01, 0x00, 0x00, 0x98, 0x00, 0x00, 0x00, 0x10, 0x00, 0x00, 0x00,
    0x04, 0x00, 0x00, 0x00, 0x6d, 0x61, 0x69, 0x6e, 0x00, 0x00, 0x00, 0x00,
    0xaa, 0xf1, 0xff, 0xff, 0x06, 0x00, 0x00, 0x00, 0x10, 0x00, 0x00, 0x00,
    0x04, 0x00, 0x00, 0x00, 0x01, 0x00, 0x00, 0x00, 0x0f, 0x00, 0x00, 0x00,
    0x01, 0x00, 0x00, 0x00, 0x0e, 0x00, 0x00, 0x00, 0x88, 0xee, 0xff, 0xff,
    0x06, 0x00, 0x00, 0x00, 0x00, 0x00, 0x00, 0x06, 0x02, 0x00, 0x00, 0x00,
    0xfc, 0xe7, 0xff, 0xff, 0x14, 0x00, 0x00, 0x00, 0x10, 0x00, 0x00, 0x00,
    0x18, 0x00, 0x00, 0x00, 0x40, 0x00, 0x00, 0x00, 0x30, 0x00, 0x00, 0x00,
    0x02, 0x00, 0x00, 0x00, 0x01, 0x00, 0x00, 0x00, 0x0a, 0x00, 0x00, 0x00,
    0x19, 0x00, 0x00, 0x00, 0x53, 0x74, 0x61, 0x74, 0x65, 0x66, 0x75, 0x6c,
    0x50, 0x61, 0x72, 0x74, 0x69, 0x74, 0x69, 0x6f, 0x6e, 0x65, 0x64, 0x43,
    0x61, 0x6c, 0x6c, 0x3a, 0x30, 0x00, 0x00, 0x00, 0x02, 0x00, 0x00, 0x00,
    0xff, 0xff, 0xff, 0xff, 0x0a, 0x00, 0x00, 0x00, 0xcc, 0xe7, 0xff, 0xff,
    0x66, 0xf0, 0xff, 0xff, 0x00, 0x00, 0x00, 0x09, 0x05, 0x00, 0x00, 0x00,
    0x1c, 0x00, 0x00, 0x00, 0x10, 0x00, 0x00, 0x00, 0x04, 0x00, 0x00, 0x00,
    0xe2, 0xe8, 0xff, 0xff, 0x00, 0x00, 0x80, 0x3f, 0x01, 0x00, 0x00, 0x00,
    0x0e, 0x00, 0x00, 0x00, 0x01, 0x00, 0x00, 0x00, 0x0d, 0x00, 0x00, 0x00,
    0x1c, 0xef, 0xff, 0xff, 0x19, 0x00, 0x00, 0x00, 0x00, 0x00, 0x00, 0x19,
    0x02, 0x00, 0x00, 0x00, 0x10, 0xef, 0xff, 0xff, 0x00, 0x00, 0x00, 0x09,
    0x14, 0x00, 0x00, 0x00, 0x0f, 0x00, 0x00, 0x00, 0x18, 0x00, 0x00, 0x00,
    0x4c, 0x00, 0x00, 0x00, 0x3c, 0x00, 0x00, 0x00, 0x02, 0x00, 0x00, 0x00,
    0x01, 0x00, 0x00, 0x00, 0x0a, 0x00, 0x00, 0x00, 0x24, 0x00, 0x00, 0x00,
    0x73, 0x65, 0x71, 0x75, 0x65, 0x6e, 0x74, 0x69, 0x61, 0x6c, 0x5f, 0x31,
    0x35, 0x2f, 0x71, 0x75, 0x61, 0x6e, 0x74, 0x5f, 0x64, 0x65, 0x6e, 0x73,
    0x65, 0x5f, 0x33, 0x31, 0x2f, 0x53, 0x6f, 0x66, 0x74, 0x6d, 0x61, 0x78,
    0x00, 0x00, 0x00, 0x00, 0x02, 0x00, 0x00, 0x00, 0xff, 0xff, 0xff, 0xff,
    0x0a, 0x00, 0x00, 0x00, 0x50, 0xea, 0xff, 0xff, 0x08, 0x00, 0x00, 0x00,
    0x0c, 0x00, 0x00, 0x00, 0x01, 0x00, 0x00, 0x00, 0x00, 0x00, 0x80, 0x3b,
    0x01, 0x00, 0x00, 0x00, 0x80, 0xff, 0xff, 0xff, 0xff, 0xff, 0xff, 0xff,
    0x26, 0xf1, 0xff, 0xff, 0x00, 0x00, 0x00, 0x08, 0x04, 0x00, 0x00, 0x00,
    0x18, 0x00, 0x00, 0x00, 0x0c, 0x00, 0x00, 0x00, 0x04, 0x00, 0x00, 0x00,
    0xa8, 0xe8, 0xff, 0xff, 0x01, 0x00, 0x00, 0x00, 0x0d, 0x00, 0x00, 0x00,
    0x03, 0x00, 0x00, 0x00, 0x0b, 0x00, 0x00, 0x00, 0x0c, 0x00, 0x00, 0x00,
    0x05, 0x00, 0x00, 0x00, 0xc4, 0xef, 0xff, 0xff, 0x00, 0x00, 0x00, 0x09,
    0x14, 0x00, 0x00, 0x00, 0x0e, 0x00, 0x00, 0x00, 0x18, 0x00, 0x00, 0x00,
    0x70, 0x00, 0x00, 0x00, 0x60, 0x00, 0x00, 0x00, 0x02, 0x00, 0x00, 0x00,
    0x01, 0x00, 0x00, 0x00, 0x0a, 0x00, 0x00, 0x00, 0x48, 0x00, 0x00, 0x00,
    0x73, 0x65, 0x71, 0x75, 0x65, 0x6e, 0x74, 0x69, 0x61, 0x6c, 0x5f, 0x31,
    0x35, 0x2f, 0x71, 0x75, 0x61, 0x6e, 0x74, 0x5f, 0x64, 0x65, 0x6e, 0x73,
    0x65, 0x5f, 0x33, 0x31, 0x2f, 0x4d, 0x61, 0x74, 0x4d, 0x75, 0x6c, 0x3b,
    0x73, 0x65, 0x71, 0x75, 0x65, 0x6e, 0x74, 0x69, 0x61, 0x6c, 0x5f, 0x31,
    0x35, 0x2f, 0x71, 0x75, 0x61, 0x6e, 0x74, 0x5f, 0x64, 0x65, 0x6e, 0x73,
    0x65, 0x5f, 0x33, 0x31, 0x2f, 0x42, 0x69, 0x61, 0x73, 0x41, 0x64, 0x64,
    0x00, 0x00, 0x00, 0x00, 0x02, 0x00, 0x00, 0x00, 0xff, 0xff, 0xff, 0xff,
    0x0a, 0x00, 0x00, 0x00, 0x28, 0xeb, 0xff, 0xff, 0x08, 0x00, 0x00, 0x00,
    0x0c, 0x00, 0x00, 0x00, 0x01, 0x00, 0x00, 0x00, 0x8f, 0x23, 0xf8, 0x3e,
    0x01, 0x00, 0x00, 0x00, 0x43, 0x00, 0x00, 0x00, 0x00, 0x00, 0x00, 0x00,
    0x00, 0x00, 0x00, 0x00, 0x66, 0xea, 0xff, 0xff, 0x04, 0x00, 0x00, 0x00,
    0xa0, 0x00, 0x00, 0x00, 0x06, 0x24, 0xfd, 0x18, 0xac, 0xd2, 0xef, 0x1e,
    0x27, 0x00, 0x16, 0x01, 0xdb, 0xea, 0xb8, 0xd0, 0x0c, 0xf7, 0x08, 0x1a,
    0x1c, 0x02, 0x81, 0xd3, 0x1d, 0xb5, 0xe3, 0xf1, 0xeb, 0xc8, 0xed, 0xeb,
    0x10, 0xcf, 0x19, 0xcd, 0x10, 0x12, 0xdd, 0x13, 0xf8, 0x03, 0xf5, 0xe0,
    0xd2, 0xcf, 0x17, 0xc9, 0xfb, 0xfc, 0x15, 0xc5, 0xe5, 0xf5, 0xd2, 0xc9,
    0xe5, 0xd6, 0xdb, 0x13, 0x25, 0xd9, 0x02, 0x1f, 0xcb, 0xf5, 0xb7, 0x03,
    0xe9, 0xff, 0x23, 0xff, 0xe6, 0x04, 0x01, 0x15, 0xf0, 0x03, 0x22, 0xdd,
    0x0a, 0x0b, 0xcc, 0xbc, 0x06, 0xb0, 0x08, 0xb3, 0xd0, 0xff, 0xdd, 0x13,
    0x0e, 0x2b, 0xf4, 0x13, 0x10, 0xb7, 0xe0, 0xf3, 0x03, 0x14, 0x20, 0x04,
    0xe5, 0xed, 0x35, 0xfc, 0xbd, 0xb9, 0xed, 0xfc, 0x11, 0x00, 0x0c, 0x21,
    0xd9, 0x08, 0x0e, 0xca, 0xc7, 0xd7, 0xfc, 0xd6, 0xe3, 0xf4, 0xf4, 0xdd,
    0xdd, 0xdf, 0x08, 0x1a, 0xf0, 0xe7, 0x01, 0x24, 0xe7, 0x44, 0x06, 0xcb,
    0x17, 0x12, 0xf0, 0xe8, 0xcc, 0x22, 0xe1, 0xde, 0x0f, 0xdf, 0xfb, 0x18,
    0x07, 0xe6, 0xfa, 0xcd, 0x02, 0x08, 0x05, 0x16, 0xf6, 0xea, 0xff, 0xff,
    0x00, 0x00, 0x00, 0x09, 0x10, 0x00, 0x00, 0x00, 0x0d, 0x00, 0x00, 0x00,
    0x14, 0x00, 0x00, 0x00, 0x7c, 0x00, 0x00, 0x00, 0x02, 0x00, 0x00, 0x00,
    0x0a, 0x00, 0x00, 0x00, 0x10, 0x00, 0x00, 0x00, 0x67, 0x00, 0x00, 0x00,
    0x73, 0x65, 0x71, 0x75, 0x65, 0x6e, 0x74, 0x69, 0x61, 0x6c, 0x5f, 0x31,
    0x35, 0x2f, 0x71, 0x75, 0x61, 0x6e, 0x74, 0x5f, 0x64, 0x65, 0x6e, 0x73,
    0x65, 0x5f, 0x33, 0x31, 0x2f, 0x4d, 0x61, 0x74, 0x4d, 0x75, 0x6c, 0x3b,
    0x73, 0x65, 0x71, 0x75, 0x65, 0x6e, 0x74, 0x69, 0x61, 0x6c, 0x5f, 0x31,
    0x35, 0x2f, 0x71, 0x75, 0x61, 0x6e, 0x74, 0x5f, 0x64, 0x65, 0x6e, 0x73,
    0x65, 0x5f, 0x33, 0x31, 0x2f, 0x4c, 0x61, 0x73, 0x74, 0x56, 0x61, 0x6c,
    0x75, 0x65, 0x51, 0x75, 0x61, 0x6e, 0x74, 0x2f, 0x46, 0x61, 0x6b, 0x65,
    0x51, 0x75, 0x61, 0x6e, 0x74, 0x57, 0x69, 0x74, 0x68, 0x4d, 0x69, 0x6e,
    0x4d, 0x61, 0x78, 0x56, 0x61, 0x72, 0x73, 0x00, 0x88, 0xec, 0xff, 0xff,
    0x08, 0x00, 0x00, 0x00, 0x0c, 0x00, 0x00, 0x00, 0x01, 0x00, 0x00, 0x00,
    0xaf, 0x64, 0x00, 0x3d, 0x01, 0x00, 0x00, 0x00, 0x00, 0x00, 0x00, 0x00,
    0x00, 0x00, 0x00, 0x00, 0x00, 0x00, 0x00, 0x00, 0x6a, 0xf4, 0xff, 0xff,
    0x00, 0x00, 0x00, 0x08, 0x04, 0x00, 0x00, 0x00, 0x24, 0x00, 0x00, 0x00,
    0x18, 0x00, 0x00, 0x00, 0x0c, 0x00, 0x00, 0x00, 0x00, 0x00, 0x06, 0x00,
    0x08, 0x00, 0x07, 0x00, 0x06, 0x00, 0x00, 0x00, 0x00, 0x00, 0x00, 0x01,
    0x01, 0x00, 0x00, 0x00, 0x0b, 0x00, 0x00, 0x00, 0x03, 0x00, 0x00, 0x00,
    0x09, 0x00, 0x00, 0x00, 0x0a, 0x00, 0x00, 0x00, 0x04, 0x00, 0x00, 0x00,
    0x28, 0xf2, 0xff, 0xff, 0x09, 0x00, 0x00, 0x00, 0x00, 0x00, 0x00, 0x09,
    0x04, 0x00, 0x00, 0x00, 0x1c, 0xf2, 0xff, 0xff, 0x00, 0x00, 0x00, 0x09,
    0x14, 0x00, 0x00, 0x00, 0x0c, 0x00, 0x00, 0x00, 0x18, 0x00, 0x00, 0x00,
    0x90, 0x00, 0x00, 0x00, 0x80, 0x00, 0x00, 0x00, 0x02, 0x00, 0x00, 0x00,
    0x01, 0x00, 0x00, 0x00, 0x10, 0x00, 0x00, 0x00, 0x6a, 0x00, 0x00, 0x00,
    0x73, 0x65, 0x71, 0x75, 0x65, 0x6e, 0x74, 0x69, 0x61, 0x6c, 0x5f, 0x31,
    0x35, 0x2f, 0x71, 0x75, 0x61, 0x6e, 0x74, 0x5f, 0x64, 0x65, 0x6e, 0x73,
    0x65, 0x5f, 0x33, 0x30, 0x2f, 0x4d, 0x61, 0x74, 0x4d, 0x75, 0x6c, 0x3b,
    0x73, 0x65, 0x71, 0x75, 0x65, 0x6e, 0x74, 0x69, 0x61, 0x6c, 0x5f, 0x31,
    0x35, 0x2f, 0x71, 0x75, 0x61, 0x6e, 0x74, 0x5f, 0x64, 0x65, 0x6e, 0x73,
    0x65, 0x5f, 0x33, 0x30, 0x2f, 0x52, 0x65, 0x6c, 0x75, 0x3b, 0x73, 0x65,
    0x71, 0x75, 0x65, 0x6e, 0x74, 0x69, 0x61, 0x6c, 0x5f, 0x31, 0x35, 0x2f,
    0x71, 0x75, 0x61, 0x6e, 0x74, 0x5f, 0x64, 0x65, 0x6e, 0x73, 0x65, 0x5f,
    0x33, 0x30, 0x2f, 0x42, 0x69, 0x61, 0x73, 0x41, 0x64, 0x64, 0x00, 0x00,
    0x02, 0x00, 0x00, 0x00, 0xff, 0xff, 0xff, 0xff, 0x10, 0x00, 0x00, 0x00,
    0xa0, 0xed, 0xff, 0xff, 0x08, 0x00, 0x00, 0x00, 0x0c, 0x00, 0x00, 0x00,
    0x01, 0x00, 0x00, 0x00, 0x1c, 0xec, 0xa7, 0x3d, 0x01, 0x00, 0x00, 0x00,
    0x80, 0xff, 0xff, 0xff, 0xff, 0xff, 0xff, 0xff, 0x00, 0x00, 0x00, 0x00,
    0xde, 0xec, 0xff, 0xff, 0x04, 0x00, 0x00, 0x00, 0x00, 0x09, 0x00, 0x00,
    0x01, 0x06, 0x0a, 0x00, 0x10, 0x06, 0x03, 0x18, 0x01, 0xe6, 0x0d, 0x02,
    0x03, 0x0d, 0x04, 0xf1, 0x02, 0x08, 0x08, 0x0d, 0xf6, 0xff, 0x01, 0xf5,
    0x01, 0xfa, 0xfb, 0x13, 0x06, 0x03, 0xfd, 0xf1, 0x02, 0xef, 0xfe, 0x02,
    0xf5, 0xf8, 0x07, 0xf1, 0x0d, 0xff, 0xfe, 0xf8, 0x03, 0xff, 0xf1, 0xfd,
    0x02, 0x04, 0x0a, 0xf7, 0x09, 0x02, 0x09, 0xfd, 0xff, 0xff, 0x20, 0x0b,
    0x0a, 0x19, 0xf5, 0xf7, 0xff, 0x03, 0x3d, 0xf3, 0xf4, 0x07, 0xe4, 0xf9,
    0xff, 0x26, 0x0c, 0x0f, 0xe4, 0xef, 0x01, 0x1b, 0xfc, 0xf9, 0xf3, 0xee,
    0xef, 0x04, 0xf1, 0xfb, 0x09, 0x06, 0xfb, 0x04, 0x04, 0x04, 0x02, 0xfa,
    0x03, 0x01, 0xfd, 0xf1, 0x05, 0x01, 0x02, 0x01, 0xf3, 0x08, 0xf6, 0x02,
    0xff, 0xe2, 0xfc, 0xfa, 0x03, 0x05, 0x28, 0xf4, 0x05, 0x0c, 0x1a, 0x03,
    0x07, 0x11, 0xe4, 0x06, 0x17, 0x81, 0x05, 0x4b, 0xfd, 0xf0, 0x03, 0x0f,
    0x06, 0x06, 0x11, 0x0c, 0x05, 0x05, 0xf3, 0x01, 0x0d, 0x03, 0x06, 0xec,
    0x01, 0xfb, 0x0d, 0x00, 0xf1, 0xf8, 0xf8, 0x12, 0xf9, 0xfa, 0xe1, 0xf3,
    0xf8, 0xfa, 0x12, 0xfc, 0x00, 0x03, 0x03, 0x0d, 0xf9, 0xf2, 0xfa, 0x06,
    0xfc, 0xfe, 0xfb, 0x13, 0x12, 0xfb, 0x03, 0xfa, 0xfe, 0xce, 0x12, 0x0b,
    0x07, 0xe9, 0xd9, 0xf2, 0xe9, 0xfc, 0x08, 0xe2, 0xfb, 0x04, 0xd5, 0x02,
    0x03, 0x01, 0xfc, 0x01, 0xfb, 0x08, 0xf9, 0x1d, 0x05, 0x02, 0x00, 0xfc,
    0xfa, 0x1b, 0x1e, 0x16, 0xfe, 0x07, 0x08, 0x0b, 0x12, 0x00, 0xf1, 0x11,
    0xf3, 0xff, 0xf6, 0xfe, 0x05, 0x29, 0x06, 0x06, 0x02, 0x08, 0x05, 0x02,
    0x10, 0x01, 0x12, 0x21, 0xfe, 0x01, 0x02, 0xfe, 0xfb, 0xf9, 0x0a, 0x09,
    0xfd, 0x01, 0xf9, 0x05, 0x0a, 0x17, 0x0a, 0x14, 0x07, 0x35, 0x26, 0x05,
    0x06, 0x34, 0x13, 0x04, 0x02, 0x06, 0xd3, 0xfd, 0x0a, 0x0a, 0xfe, 0x08,
    0x10, 0x02, 0x09, 0x08, 0x1a, 0x27, 0x07, 0xdb, 0xfd, 0x1e, 0x0e, 0x01,
    0x18, 0x00, 0xfc, 0x01, 0x02, 0x02, 0x00, 0x0d, 0x03, 0xfe, 0x05, 0x13,
    0x00, 0x09, 0x00, 0xfe, 0x09, 0x08, 0x06, 0xf1, 0x09, 0x18, 0x06, 0x0e,
    0x06, 0x00, 0xee, 0x0f, 0xff, 0xfc, 0x04, 0x0c, 0x04, 0x19, 0x16, 0xee,
    0x09, 0x15, 0x02, 0x00, 0x27, 0x13, 0xfa, 0xfb, 0xff, 0xbf, 0x01, 0xff,
    0xf3, 0x0c, 0x20, 0xc6, 0x19, 0x06, 0xf8, 0x06, 0xfa, 0x01, 0xe3, 0xf3,
    0x03, 0x01, 0x0b, 0xf9, 0x0c, 0x09, 0x07, 0xf7, 0xff, 0xfc, 0x09, 0x06,
    0x07, 0xfe, 0xf5, 0x0b, 0x02, 0x05, 0x31, 0x05, 0x00, 0x3a, 0x1a, 0xfc,
    0xff, 0x03, 0x23, 0x04, 0xf5, 0x14, 0x01, 0x45, 0x01, 0xf5, 0x07, 0x15,
    0x07, 0x02, 0x03, 0xfc, 0x06, 0x04, 0x0c, 0x01, 0x02, 0x0e, 0x01, 0x12,
    0xfe, 0x02, 0x06, 0x01, 0x04, 0x04, 0x01, 0xfe, 0xff, 0x14, 0xf4, 0x06,
    0x01, 0xfb, 0x04, 0x05, 0xfd, 0x04, 0x1f, 0x13, 0x09, 0x09, 0x27, 0x04,
    0x0f, 0x01, 0xf1, 0x00, 0x2d, 0xf7, 0x03, 0x27, 0xfe, 0xfe, 0xff, 0x07,
    0x10, 0x01, 0x06, 0x02, 0x04, 0x00, 0x01, 0x03, 0xfd, 0xfb, 0x03, 0x0a,
    0x03, 0x06, 0x01, 0xff, 0xfd, 0x04, 0x04, 0xfd, 0xff, 0x17, 0xfc, 0x04,
    0xfe, 0xf9, 0xfc, 0xfd, 0xfd, 0xf0, 0x0a, 0x09, 0xfa, 0x0e, 0xf7, 0xf5,
    0x04, 0x1a, 0x08, 0xd0, 0xf3, 0xf6, 0xf3, 0x16, 0xfe, 0xe1, 0x0a, 0x0f,
    0xfa, 0xf2, 0xe8, 0x09, 0xf4, 0x05, 0x10, 0xef, 0x07, 0x03, 0xf9, 0x19,
    0x03, 0x05, 0x06, 0x0a, 0xfe, 0xfa, 0x03, 0xf2, 0x03, 0xff, 0xd4, 0x0c,
    0xfd, 0xe0, 0xf2, 0x04, 0xfd, 0xf4, 0xf4, 0xf4, 0x05, 0x19, 0x0c, 0x04,
    0x08, 0x08, 0x0e, 0xe3, 0xe6, 0xf8, 0xfc, 0x04, 0xff, 0xfc, 0xf0, 0xf2,
    0x03, 0x02, 0x1f, 0x16, 0xff, 0x01, 0x04, 0x00, 0x06, 0x08, 0x07, 0xfc,
    0xfe, 0x03, 0x13, 0x16, 0x02, 0x08, 0x05, 0x03, 0x05, 0x02, 0x97, 0x09,
    0x04, 0xdd, 0x06, 0x07, 0xff, 0x02, 0xd1, 0xe7, 0x0d, 0x0e, 0x24, 0x09,
    0x02, 0x0f, 0xd5, 0x08, 0x02, 0x11, 0x04, 0xfc, 0x02, 0x05, 0x01, 0x16,
    0xea, 0x03, 0x1a, 0x07, 0x05, 0x03, 0xff, 0x05, 0x01, 0x02, 0x01, 0xf3,
    0x03, 0x0c, 0x07, 0x01, 0xf5, 0x0b, 0x14, 0x01, 0x02, 0x07, 0xda, 0x16,
    0xff, 0xec, 0x05, 0xf6, 0x03, 0x13, 0xfb, 0x00, 0xff, 0x1b, 0x30, 0x0e,
    0x13, 0x1b, 0xfa, 0x10, 0x11, 0xf1, 0x04, 0xf7, 0xff, 0x23, 0xf1, 0xf9,
    0xf6, 0x06, 0xf5, 0x17, 0x14, 0x12, 0x04, 0xf4, 0x04, 0xf8, 0x16, 0xfe,
    0xfd, 0x02, 0x09, 0x0a, 0xf1, 0xf4, 0x02, 0xf6, 0xfb, 0x07, 0xf6, 0xfe,
    0xfa, 0x08, 0xdd, 0xfd, 0xfe, 0x00, 0x01, 0x02, 0xfa, 0xf4, 0x16, 0xf3,
    0x04, 0x1f, 0xfe, 0xed, 0x25, 0x06, 0xfb, 0x09, 0x03, 0xff, 0xfc, 0xfb,
    0xfb, 0xfd, 0xcf, 0xed, 0xfc, 0x00, 0x01, 0xed, 0xfe, 0xfe, 0xf4, 0x00,
    0xfd, 0x02, 0x03, 0x02, 0x06, 0x05, 0x06, 0x01, 0x03, 0xff, 0x06, 0x06,
    0x05, 0x03, 0xfc, 0xfe, 0x00, 0x05, 0xf6, 0x3d, 0x0a, 0x06, 0x07, 0x04,
    0x04, 0xf9, 0x77, 0xff, 0xfb, 0x16, 0x01, 0x3f, 0x00, 0xf2, 0x01, 0xfb,
    0x07, 0xfe, 0xf5, 0x05, 0xfb, 0x01, 0x05, 0xff, 0x04, 0x09, 0x03, 0xfd,
    0x00, 0x04, 0xf4, 0xfd, 0x03, 0xfd, 0x03, 0x2b, 0x00, 0x17, 0xf5, 0x06,
    0xfc, 0xfc, 0x3b, 0xfa, 0xfe, 0x0d, 0x03, 0xfa, 0x00, 0x1d, 0x08, 0x09,
    0x13, 0x25, 0xfe, 0x2b, 0xfc, 0xfc, 0x06, 0x0b, 0x01, 0x04, 0xfe, 0x0d,
    0xee, 0x12, 0x14, 0xdf, 0x10, 0x10, 0x01, 0x14, 0xf8, 0x06, 0xee, 0x06,
    0x00, 0x04, 0xfc, 0xff, 0x16, 0x08, 0xfe, 0x19, 0xfc, 0x07, 0xfd, 0x0e,
    0xfb, 0xf8, 0x13, 0xfd, 0x00, 0x06, 0x0e, 0xfa, 0xfd, 0x0e, 0x06, 0xf6,
    0x08, 0x2a, 0x0c, 0x29, 0x18, 0xf0, 0xfb, 0x04, 0x01, 0x00, 0x0b, 0x0e,
    0xea, 0x01, 0x07, 0xd3, 0x0c, 0x03, 0xff, 0xf9, 0x0a, 0x08, 0xf5, 0x0a,
    0x03, 0x00, 0x1d, 0x1c, 0x00, 0x02, 0x06, 0xfb, 0x10, 0xef, 0xed, 0x03,
    0x0a, 0xef, 0xf7, 0x0d, 0x00, 0x01, 0x3c, 0x0d, 0x03, 0x0a, 0x12, 0x06,
    0xff, 0x0b, 0x41, 0xfe, 0xfa, 0xd6, 0x04, 0x36, 0x03, 0xfa, 0x07, 0x12,
    0xeb, 0xff, 0xfc, 0xf6, 0x0c, 0x03, 0x06, 0xff, 0xff, 0x05, 0xfb, 0x06,
    0xfe, 0x10, 0xef, 0xf2, 0x14, 0x20, 0x06, 0x48, 0x0c, 0x10, 0x0a, 0x15,
    0x00, 0x11, 0x42, 0xeb, 0xfe, 0x10, 0xf3, 0xe6, 0x1e, 0x11, 0xf9, 0x33,
    0x04, 0xf7, 0xfe, 0x0a, 0xeb, 0x0d, 0x26, 0xed, 0x03, 0x40, 0x02, 0xfd,
    0x1f, 0x10, 0x01, 0x40, 0x05, 0x05, 0x08, 0x0d, 0xfd, 0x04, 0x30, 0x0c,
    0x02, 0x04, 0xfa, 0xfa, 0x10, 0x04, 0x0a, 0x1b, 0x04, 0xfa, 0xfb, 0x09,
    0x04, 0xf4, 0x11, 0xef, 0x01, 0x12, 0xec, 0xe4, 0x05, 0xf9, 0xe4, 0x0e,
    0xfd, 0xfb, 0xf7, 0x06, 0xec, 0xf6, 0x0b, 0xf4, 0xff, 0x18, 0xfd, 0xf3,
    0xfc, 0x13, 0x34, 0x01, 0x27, 0x08, 0xfc, 0x25, 0xf7, 0xfb, 0x0e, 0xf6,
    0x03, 0x02, 0x03, 0x08, 0x02, 0xfd, 0x03, 0xfa, 0x03, 0xf5, 0x01, 0x02,
    0xff, 0xfa, 0x00, 0xfc, 0xff, 0x04, 0xe6, 0xff, 0x00, 0xff, 0xf2, 0x02,
    0xfe, 0x04, 0x0a, 0xfd, 0xcb, 0x0a, 0x04, 0xf3, 0x02, 0xef, 0x07, 0x0d,
    0xe0, 0x02, 0xf7, 0xfe, 0xef, 0x02, 0xef, 0x00, 0x13, 0x0a, 0x02, 0xe5,
    0x00, 0xfe, 0x00, 0xfe, 0xfe, 0x09, 0xfe, 0xb5, 0xfe, 0x00, 0x18, 0x06,
    0x00, 0xe6, 0xad, 0x11, 0x00, 0xe7, 0x09, 0x0b, 0x02, 0xf4, 0xf9, 0xe2,
    0xf8, 0xf3, 0x02, 0xc5, 0x01, 0x0e, 0xe4, 0x07, 0x01, 0x1b, 0xfb, 0x04,
    0x0b, 0xfd, 0x1c, 0x21, 0x0d, 0xfb, 0xfd, 0x05, 0x01, 0xfd, 0x1c, 0xf7,
    0xfe, 0x03, 0x0b, 0x08, 0xfd, 0xf7, 0x09, 0xe3, 0x00, 0x0b, 0xb3, 0x0b,
    0x08, 0xdd, 0xbb, 0xe5, 0xfe, 0x00, 0x03, 0x17, 0x02, 0xfc, 0x0c, 0xfe,
    0x05, 0xdb, 0x10, 0xdf, 0xe4, 0xf6, 0x05, 0x13, 0xfd, 0x09, 0x0b, 0x02,
    0xf9, 0x02, 0x01, 0x07, 0x06, 0x00, 0x05, 0x04, 0xf8, 0xfd, 0x04, 0xfc,
    0x03, 0x03, 0x0e, 0x0d, 0xfd, 0xf1, 0x02, 0xf1, 0x05, 0xdf, 0xb4, 0x05,
    0x03, 0xd8, 0xef, 0xf9, 0x00, 0x02, 0x1b, 0x11, 0x0a, 0x01, 0x0c, 0x06,
    0x0a, 0xf7, 0xfb, 0x00, 0x02, 0x16, 0x02, 0x03, 0x00, 0xfd, 0x02, 0xf3,
    0x02, 0x02, 0x03, 0x0a, 0x04, 0x00, 0xfd, 0xfe, 0x00, 0x02, 0x04, 0xf6,
    0x00, 0x05, 0x0e, 0x12, 0xeb, 0xe0, 0xf8, 0xdb, 0xf6, 0x09, 0xde, 0xfb,
    0xff, 0xfc, 0xf2, 0x24, 0xfd, 0x0a, 0xfb, 0xfe, 0x0a, 0xf8, 0x06, 0x0a,
    0x03, 0xfd, 0x09, 0x00, 0xf6, 0xfd, 0x0e, 0x06, 0x03, 0xfc, 0xf8, 0x00,
    0xfd, 0xf6, 0xe8, 0x06, 0xea, 0xfe, 0x03, 0xf4, 0xf9, 0x02, 0x03, 0x00,
    0x03, 0x03, 0x0a, 0x1a, 0xf2, 0xf3, 0xfc, 0x06, 0x01, 0x07, 0xef, 0xfe,
    0xf9, 0x05, 0x18, 0x11, 0x02, 0x06, 0x0c, 0x2e, 0x00, 0x13, 0x16, 0x06,
    0x02, 0x17, 0x0c, 0x04, 0xfc, 0xff, 0x05, 0x00, 0x02, 0x00, 0x1f, 0x3d,
    0x07, 0x01, 0xd7, 0xef, 0xd9, 0x06, 0x0e, 0xf4, 0x1b, 0x08, 0xf6, 0x0e,
    0xff, 0x03, 0xff, 0x10, 0x06, 0x02, 0x04, 0x07, 0x06, 0xee, 0xff, 0x04,
    0xfe, 0x0b, 0x04, 0x07, 0xff, 0x0a, 0x12, 0x09, 0x09, 0x0a, 0x13, 0x01,
    0xfc, 0x03, 0x39, 0x0c, 0x30, 0x26, 0x00, 0xfd, 0x01, 0x01, 0xfb, 0xf5,
    0x19, 0x03, 0xfb, 0xf7, 0xfa, 0x02, 0x1c, 0xfb, 0x0b, 0x09, 0xfd, 0x24,
    0xfe, 0x01, 0x03, 0x10, 0x14, 0x05, 0xfa, 0xfa, 0x00, 0xf1, 0x1d, 0x03,
    0xfe, 0x06, 0xf2, 0x0d, 0xff, 0x00, 0xf1, 0x01, 0xed, 0xe4, 0x18, 0x00,
    0xf8, 0xe0, 0xee, 0x0e, 0x14, 0xfd, 0x08, 0xe9, 0x03, 0xdf, 0xf9, 0xfc,
    0x00, 0x03, 0xf1, 0xd5, 0xf6, 0x03, 0x0d, 0xf9, 0xfa, 0x06, 0xf5, 0x00,
    0x03, 0x02, 0xf7, 0x01, 0x0b, 0xff, 0xfd, 0xf1, 0x04, 0xfd, 0xf8, 0x08,
    0xfd, 0xea, 0xfc, 0x0a, 0x02, 0xfe, 0xe2, 0xe9, 0xfe, 0x0e, 0xe0, 0x0f,
    0xde, 0x04, 0xf1, 0xf4, 0x0c, 0x11, 0x07, 0xea, 0xff, 0x0d, 0x0a, 0x0e,
    0x04, 0x06, 0xdf, 0x02, 0xfb, 0x05, 0xfc, 0x00, 0x12, 0xfb, 0xfd, 0xf8,
    0x03, 0x00, 0xfd, 0x0e, 0x02, 0x07, 0x04, 0x02, 0x02, 0x09, 0xf3, 0x00,
    0x00, 0xf0, 0x03, 0x0e, 0xff, 0xff, 0xe7, 0xa9, 0xff, 0x01, 0xf2, 0x02,
    0xec, 0x0f, 0xf4, 0x02, 0xe4, 0x36, 0x03, 0xf3, 0x02, 0x09, 0x18, 0x19,
    0xf1, 0x00, 0xc0, 0xe7, 0x02, 0x04, 0xff, 0x05, 0x0d, 0x0e, 0xf8, 0xff,
    0xfd, 0xfa, 0x01, 0x12, 0x00, 0xfc, 0xf5, 0xfd, 0xff, 0xfd, 0x00, 0xf3,
    0xf8, 0x08, 0x00, 0x0a, 0x03, 0xee, 0x0b, 0x06, 0x03, 0xf2, 0xef, 0x03,
    0xfa, 0x00, 0x04, 0xf0, 0xfd, 0x02, 0xfa, 0x0e, 0xfd, 0xfb, 0x0e, 0x03,
    0x12, 0xf7, 0x11, 0xfa, 0xf8, 0xfa, 0x05, 0x0a, 0x0f, 0x08, 0x01, 0x04,
    0xff, 0x00, 0xf7, 0x09, 0x01, 0x0a, 0xf9, 0x1e, 0x09, 0xeb, 0x11, 0xfe,
    0xf9, 0x0b, 0x15, 0x0c, 0xff, 0x02, 0x0a, 0xf8, 0x00, 0x18, 0x05, 0x06,
    0xf6, 0x08, 0x07, 0x10, 0xf6, 0xfd, 0x04, 0x0a, 0x00, 0x00, 0xfb, 0xfc,
    0xf9, 0xfa, 0x0e, 0xea, 0xfd, 0x00, 0xfb, 0x06, 0x06, 0x12, 0x06, 0xfd,
    0x01, 0x03, 0x02, 0x08, 0x03, 0x07, 0x00, 0x08, 0x0f, 0xff, 0x03, 0x00,
    0x03, 0x03, 0x0f, 0x06, 0x02, 0xf8, 0x0d, 0xf3, 0xf1, 0xfd, 0xf0, 0xfd,
    0xea, 0x0b, 0x1b, 0xfa, 0xf1, 0x17, 0xfe, 0x0a, 0x03, 0x01, 0xf8, 0xe5,
    0xf1, 0xff, 0x00, 0xf8, 0x0c, 0x00, 0x00, 0xff, 0xfa, 0xfd, 0x01, 0x00,
    0xfe, 0x02, 0x0b, 0xfe, 0x04, 0x01, 0xfc, 0x1a, 0xff, 0xfc, 0x0e, 0xfd,
    0xfe, 0x0f, 0x00, 0xf0, 0xfe, 0x07, 0xed, 0xf7, 0xfd, 0xec, 0xf6, 0xf6,
    0x03, 0xc3, 0x00, 0x20, 0xf6, 0xfd, 0xfe, 0xfb, 0x03, 0x18, 0x06, 0xfd,
    0x02, 0xfb, 0x01, 0x05, 0xfa, 0x00, 0x03, 0xff, 0x00, 0xf6, 0x02, 0x03,
    0x02, 0xfd, 0x11, 0x04, 0x13, 0x19, 0x04, 0x07, 0xf9, 0xff, 0x15, 0x05,
    0x0c, 0x08, 0x02, 0xfa, 0xff, 0xfe, 0x12, 0x14, 0x01, 0xb0, 0xef, 0x01,
    0x14, 0xfa, 0x06, 0x0c, 0x0e, 0xee, 0xfe, 0xe3, 0xfd, 0x02, 0x12, 0x27,
    0x01, 0xf8, 0xeb, 0x0a, 0xfb, 0xff, 0x07, 0xf7, 0x01, 0xfd, 0xfe, 0x09,
    0x02, 0x02, 0xf8, 0xed, 0x06, 0x09, 0x05, 0x06, 0xf7, 0xfb, 0x27, 0x04,
    0x06, 0x0e, 0x05, 0xf1, 0xfd, 0x03, 0x02, 0xdb, 0x02, 0x01, 0xec, 0x04,
    0xfb, 0xff, 0x99, 0x05, 0xf5, 0xd5, 0x01, 0x97, 0x02, 0x0e, 0x02, 0x09,
    0x1f, 0x00, 0x17, 0x0a, 0x06, 0x01, 0xfa, 0x08, 0xf5, 0xdf, 0x05, 0x21,
    0xfe, 0x06, 0x04, 0x00, 0x03, 0x05, 0x05, 0xf3, 0x09, 0xfb, 0x0e, 0x05,
    0xff, 0x13, 0xf0, 0xfe, 0xff, 0xfc, 0x01, 0xff, 0x0d, 0x13, 0x17, 0xfd,
    0x05, 0x18, 0x03, 0xe0, 0x0e, 0x00, 0x00, 0x05, 0xff, 0x19, 0x08, 0x06,
    0x13, 0x0a, 0x1a, 0x1f, 0x0d, 0x05, 0x02, 0x0c, 0x0a, 0x00, 0x19, 0x08,
    0xff, 0xfa, 0x03, 0x09, 0x07, 0x06, 0xff, 0x0b, 0xf8, 0xed, 0x17, 0xf4,
    0x00, 0x19, 0x03, 0x12, 0xfe, 0x06, 0xd6, 0x01, 0x09, 0x00, 0x18, 0x0b,
    0xfd, 0xec, 0xee, 0xed, 0x18, 0x0e, 0x07, 0xe6, 0x01, 0x0c, 0xff, 0xfc,
    0x0e, 0x02, 0x0f, 0x1f, 0x05, 0x00, 0x06, 0x07, 0xf3, 0x05, 0x0a, 0x01,
    0xfe, 0x00, 0xee, 0xea, 0x0c, 0x10, 0x01, 0x13, 0xf9, 0x23, 0x34, 0x00,
    0xfc, 0x46, 0x19, 0x07, 0xff, 0x06, 0xd9, 0xf2, 0x01, 0x01, 0xf3, 0x06,
    0xfa, 0xfc, 0x92, 0x01, 0xf6, 0x58, 0x02, 0xd4, 0xff, 0x2a, 0xfc, 0xfb,
    0xfd, 0x00, 0x02, 0x04, 0x09, 0x00, 0xf0, 0x07, 0xf5, 0xfa, 0x04, 0xef,
    0x00, 0x05, 0x05, 0xff, 0x06, 0x07, 0x02, 0x03, 0xfe, 0xf8, 0xf3, 0x0b,
    0x00, 0xf9, 0x01, 0xe2, 0xfe, 0xfb, 0x07, 0x1c, 0xf3, 0xfa, 0x06, 0xef,
    0x08, 0x10, 0x0c, 0xff, 0x18, 0x05, 0xf5, 0x00, 0x03, 0xfc, 0x0b, 0xff,
    0x02, 0xfc, 0xf2, 0x0c, 0xfd, 0xfb, 0xfa, 0xe4, 0xf6, 0xfb, 0x02, 0xfc,
    0x02, 0x04, 0x0e, 0x02, 0x08, 0x0a, 0x02, 0x00, 0x00, 0xfa, 0x0e, 0x06,
    0x0a, 0x0c, 0xea, 0x08, 0xff, 0xfd, 0xfd, 0x02, 0xee, 0xf3, 0x02, 0xf3,
    0x08, 0xd8, 0x03, 0xdb, 0x00, 0x1c, 0xfc, 0x1a, 0xfd, 0x02, 0xd2, 0xcb,
    0x0b, 0xf6, 0x11, 0x2c, 0x15, 0xfb, 0xe3, 0x0a, 0xe6, 0xfc, 0x0e, 0xdd,
    0xfd, 0x02, 0x0f, 0x03, 0xfe, 0x02, 0xfe, 0xfc, 0x06, 0x00, 0x0f, 0x02,
    0x02, 0x1d, 0x00, 0x12, 0x00, 0x00, 0xa0, 0x01, 0x02, 0x06, 0xf6, 0x03,
    0x05, 0xf8, 0xc9, 0xf9, 0xf9, 0x36, 0x03, 0xe3, 0xfd, 0x17, 0xf4, 0xde,
    0x22, 0xfe, 0x03, 0x0e, 0x04, 0x00, 0xee, 0x06, 0xef, 0xec, 0x04, 0xcb,
    0xfd, 0x06, 0xf8, 0x00, 0x0e, 0x0b, 0x09, 0x0e, 0x04, 0x1a, 0x09, 0x0b,
    0x00, 0x07, 0x1b, 0xff, 0xfd, 0x0c, 0x00, 0xfc, 0xfd, 0x0b, 0x0a, 0xfc,
    0x0f, 0x16, 0xfe, 0x22, 0xfc, 0x04, 0x07, 0x02, 0x00, 0xfd, 0x0b, 0x01,
    0x03, 0x14, 0xf8, 0xfd, 0xf4, 0x0c, 0xfd, 0x07, 0x03, 0xfb, 0x02, 0xf7,
    0xfe, 0x03, 0x05, 0x03, 0x06, 0x07, 0x00, 0x01, 0x06, 0x05, 0xf5, 0x01,
    0xff, 0xf0, 0x04, 0x08, 0x00, 0xfe, 0xf2, 0xe3, 0xf3, 0xd3, 0x00, 0xfc,
    0x04, 0x03, 0xfa, 0x0b, 0x21, 0x01, 0x02, 0xda, 0x03, 0xfb, 0x07, 0x0e,
    0xff, 0x00, 0x01, 0xef, 0xee, 0x06, 0x02, 0xf9, 0x01, 0xf7, 0xfc, 0x0d,
    0x00, 0x01, 0x00, 0x10, 0x01, 0xfd, 0xfa, 0x04, 0x09, 0xfa, 0x14, 0x01,
    0xfb, 0xf7, 0x0d, 0x14, 0xff, 0xff, 0x06, 0xee, 0xf8, 0xf8, 0xd7, 0xfd,
    0xe4, 0xf8, 0x23, 0xfb, 0xea, 0x2b, 0x02, 0xf2, 0xfe, 0x0a, 0x08, 0xfe,
    0x04, 0x07, 0xf3, 0xf8, 0x05, 0x02, 0x12, 0x06, 0xff, 0x00, 0x01, 0x27,
    0xff, 0xf6, 0x0f, 0x0b, 0xed, 0xf5, 0x08, 0xec, 0xfb, 0xe9, 0xf1, 0xfd,
    0x04, 0x02, 0xee, 0x04, 0x00, 0x06, 0x01, 0x08, 0xf8, 0xfe, 0x17, 0x1c,
    0x09, 0x06, 0xfd, 0x05, 0x09, 0xf9, 0x07, 0xff, 0x02, 0x3a, 0x0a, 0x0a,
    0x10, 0x0f, 0x1b, 0x1e, 0x0f, 0x08, 0x0b, 0x11, 0xf5, 0x01, 0x20, 0x1a,
    0xfd, 0xfd, 0x03, 0xfc, 0xfb, 0xfd, 0xfe, 0x11, 0xff, 0xf0, 0x28, 0xed,
    0x00, 0x49, 0x0f, 0xf8, 0x02, 0x07, 0x19, 0x0b, 0x07, 0x02, 0x13, 0x08,
    0x03, 0x11, 0x04, 0x1d, 0x24, 0xe8, 0xfe, 0x1d, 0xfd, 0x22, 0x09, 0xfb,
    0xf6, 0x01, 0xfb, 0xfc, 0x06, 0x02, 0xff, 0x0e, 0x06, 0xfc, 0x04, 0x01,
    0xfe, 0x00, 0xf4, 0xf9, 0xfd, 0x05, 0x00, 0x01, 0x02, 0x13, 0x3a, 0xfe,
    0xfc, 0x41, 0x08, 0xf7, 0xff, 0xff, 0x16, 0x07, 0x04, 0x07, 0x0d, 0x03,
    0xfe, 0xfe, 0x26, 0xfe, 0x0a, 0x06, 0x02, 0x26, 0x00, 0x12, 0x0b, 0xf4,
    0xf0, 0xff, 0xf6, 0x05, 0x13, 0x03, 0xfc, 0x03, 0xf6, 0x01, 0xfe, 0xf3,
    0xce, 0xf5, 0xff, 0xff, 0x00, 0x00, 0x00, 0x09, 0x10, 0x00, 0x00, 0x00,
    0x0b, 0x00, 0x00, 0x00, 0x14, 0x00, 0x00, 0x00, 0x7c, 0x00, 0x00, 0x00,
    0x02, 0x00, 0x00, 0x00, 0x10, 0x00, 0x00, 0x00, 0x90, 0x00, 0x00, 0x00,
    0x67, 0x00, 0x00, 0x00, 0x73, 0x65, 0x71, 0x75, 0x65, 0x6e, 0x74, 0x69,
    0x61, 0x6c, 0x5f, 0x31, 0x35, 0x2f, 0x71, 0x75, 0x61, 0x6e, 0x74, 0x5f,
    0x64, 0x65, 0x6e, 0x73, 0x65, 0x5f, 0x33, 0x30, 0x2f, 0x4d, 0x61, 0x74,
    0x4d, 0x75, 0x6c, 0x3b, 0x73, 0x65, 0x71, 0x75, 0x65, 0x6e, 0x74, 0x69,
    0x61, 0x6c, 0x5f, 0x31, 0x35, 0x2f, 0x71, 0x75, 0x61, 0x6e, 0x74, 0x5f,
    0x64, 0x65, 0x6e, 0x73, 0x65, 0x5f, 0x33, 0x30, 0x2f, 0x4c, 0x61, 0x73,
    0x74, 0x56, 0x61, 0x6c, 0x75, 0x65, 0x51, 0x75, 0x61, 0x6e, 0x74, 0x2f,
    0x46, 0x61, 0x6b, 0x65, 0x51, 0x75, 0x61, 0x6e, 0x74, 0x57, 0x69, 0x74,
    0x68, 0x4d, 0x69, 0x6e, 0x4d, 0x61, 0x78, 0x56, 0x61, 0x72, 0x73, 0x00,
    0x60, 0xf7, 0xff, 0xff, 0x08, 0x00, 0x00, 0x00, 0x0c, 0x00, 0x00, 0x00,
    0x01, 0x00, 0x00, 0x00, 0xf6, 0x2d, 0x5b, 0x3d, 0x01, 0x00, 0x00, 0x00,
    0x00, 0x00, 0x00, 0x00, 0x00, 0x00, 0x00, 0x00, 0x00, 0x00, 0x0a, 0x00,
    0x10, 0x00, 0x04, 0x00, 0x08, 0x00, 0x0c, 0x00, 0x0a, 0x00, 0x00, 0x00,
    0x03, 0x00, 0x00, 0x00, 0x10, 0x00, 0x00, 0x00, 0x04, 0x00, 0x00, 0x00,
    0x01, 0x00, 0x00, 0x00, 0x09, 0x00, 0x00, 0x00, 0x02, 0x00, 0x00, 0x00,
    0x08, 0x00, 0x00, 0x00, 0x01, 0x00, 0x00, 0x00, 0xec, 0xfc, 0xff, 0xff,
    0x16, 0x00, 0x00, 0x00, 0x00, 0x00, 0x00, 0x16, 0x01, 0x00, 0x00, 0x00,
    0xe0, 0xfc, 0xff, 0xff, 0x00, 0x00, 0x00, 0x09, 0x14, 0x00, 0x00, 0x00,
    0x0a, 0x00, 0x00, 0x00, 0x18, 0x00, 0x00, 0x00, 0x4c, 0x00, 0x00, 0x00,
    0x3c, 0x00, 0x00, 0x00, 0x02, 0x00, 0x00, 0x00, 0x01, 0x00, 0x00, 0x00,
    0x90, 0x00, 0x00, 0x00, 0x26, 0x00, 0x00, 0x00, 0x73, 0x65, 0x71, 0x75,
    0x65, 0x6e, 0x74, 0x69, 0x61, 0x6c, 0x5f, 0x31, 0x35, 0x2f, 0x71, 0x75,
    0x61, 0x6e, 0x74, 0x5f, 0x66, 0x6c, 0x61, 0x74, 0x74, 0x65, 0x6e, 0x5f,
    0x31, 0x35, 0x2f, 0x52, 0x65, 0x73, 0x68, 0x61, 0x70, 0x65, 0x00, 0x00,
    0x02, 0x00, 0x00, 0x00, 0xff, 0xff, 0xff, 0xff, 0x90, 0x00, 0x00, 0x00,
    0x20, 0xf8, 0xff, 0xff, 0x08, 0x00, 0x00, 0x00, 0x0c, 0x00, 0x00, 0x00,
    0x01, 0x00, 0x00, 0x00, 0xc5, 0xa5, 0xf8, 0x3b, 0x01, 0x00, 0x00, 0x00,
    0x80, 0xff, 0xff, 0xff, 0xff, 0xff, 0xff, 0xff, 0x00, 0x00, 0x0e, 0x00,
    0x1a, 0x00, 0x08, 0x00, 0x0c, 0x00, 0x10, 0x00, 0x07, 0x00, 0x14, 0x00,
    0x0e, 0x00, 0x00, 0x00, 0x00, 0x00, 0x00, 0x05, 0x02, 0x00, 0x00, 0x00,
    0x3c, 0x00, 0x00, 0x00, 0x30, 0x00, 0x00, 0x00, 0x14, 0x00, 0x00, 0x00,
    0x00, 0x00, 0x0e, 0x00, 0x18, 0x00, 0x17, 0x00, 0x10, 0x00, 0x0c, 0x00,
    0x08, 0x00, 0x04, 0x00, 0x0e, 0x00, 0x00, 0x00, 0x02, 0x00, 0x00, 0x00,
    0x02, 0x00, 0x00, 0x00, 0x02, 0x00, 0x00, 0x00, 0x02, 0x00, 0x00, 0x00,
    0x00, 0x00, 0x00, 0x01, 0x01, 0x00, 0x00, 0x00, 0x08, 0x00, 0x00, 0x00,
    0x01, 0x00, 0x00, 0x00, 0x07, 0x00, 0x00, 0x00, 0xdc, 0xfd, 0xff, 0xff,
    0x11, 0x00, 0x00, 0x00, 0x00, 0x00, 0x00, 0x11, 0x02, 0x00, 0x00, 0x00,
    0xd0, 0xfd, 0xff, 0xff, 0x00, 0x00, 0x00, 0x09, 0x14, 0x00, 0x00, 0x00,
    0x09, 0x00, 0x00, 0x00, 0x20, 0x00, 0x00, 0x00, 0x64, 0x00, 0x00, 0x00,
    0x4c, 0x00, 0x00, 0x00, 0x04, 0x00, 0x00, 0x00, 0x01, 0x00, 0x00, 0x00,
    0x03, 0x00, 0x00, 0x00, 0x03, 0x00, 0x00, 0x00, 0x10, 0x00, 0x00, 0x00,
    0x2c, 0x00, 0x00, 0x00, 0x73, 0x65, 0x71, 0x75, 0x65, 0x6e, 0x74, 0x69,
    0x61, 0x6c, 0x5f, 0x31, 0x35, 0x2f, 0x71, 0x75, 0x61, 0x6e, 0x74, 0x5f,
    0x6d, 0x61, 0x78, 0x5f, 0x70, 0x6f, 0x6f, 0x6c, 0x69, 0x6e, 0x67, 0x32,
    0x64, 0x5f, 0x31, 0x38, 0x2f, 0x4d, 0x61, 0x78, 0x50, 0x6f, 0x6f, 0x6c,
    0x00, 0x00, 0x00, 0x00, 0x04, 0x00, 0x00, 0x00, 0xff, 0xff, 0xff, 0xff,
    0x03, 0x00, 0x00, 0x00, 0x03, 0x00, 0x00, 0x00, 0x10, 0x00, 0x00, 0x00,
    0x28, 0xf9, 0xff, 0xff, 0x08, 0x00, 0x00, 0x00, 0x0c, 0x00, 0x00, 0x00,
    0x01, 0x00, 0x00, 0x00, 0xc5, 0xa5, 0xf8, 0x3b, 0x01, 0x00, 0x00, 0x00,
    0x80, 0xff, 0xff, 0xff, 0xff, 0xff, 0xff, 0xff, 0x00, 0x00, 0x0e, 0x00,
    0x18, 0x00, 0x08, 0x00, 0x0c, 0x00, 0x10, 0x00, 0x07, 0x00, 0x14, 0x00,
    0x0e, 0x00, 0x00, 0x00, 0x00, 0x00, 0x00, 0x01, 0x01, 0x00, 0x00, 0x00,
    0x30, 0x00, 0x00, 0x00, 0x24, 0x00, 0x00, 0x00, 0x10, 0x00, 0x00, 0x00,
    0x0c, 0x00, 0x10, 0x00, 0x0e, 0x00, 0x04, 0x00, 0x08, 0x00, 0x0f, 0x00,
    0x0c, 0x00, 0x00, 0x00, 0x01, 0x00, 0x00, 0x00, 0x01, 0x00, 0x00, 0x00,
    0x00, 0x00, 0x01, 0x01, 0x01, 0x00, 0x00, 0x00, 0x07, 0x00, 0x00, 0x00,
    0x03, 0x00, 0x00, 0x00, 0x06, 0x00, 0x00, 0x00, 0x02, 0x00, 0x00, 0x00,
    0x03, 0x00, 0x00, 0x00, 0xe0, 0xfe, 0xff, 0xff, 0x03, 0x00, 0x00, 0x00,
    0x00, 0x00, 0x00, 0x03, 0x03, 0x00, 0x00, 0x00, 0xd4, 0xfe, 0xff, 0xff,
    0x00, 0x00, 0x00, 0x09, 0x14, 0x00, 0x00, 0x00, 0x08, 0x00, 0x00, 0x00,
    0x20, 0x00, 0x00, 0x00, 0xb0, 0x00, 0x00, 0x00, 0x98, 0x00, 0x00, 0x00,
    0x04, 0x00, 0x00, 0x00, 0x01, 0x00, 0x00, 0x00, 0x06, 0x00, 0x00, 0x00,
    0x06, 0x00, 0x00, 0x00, 0x10, 0x00, 0x00, 0x00, 0x7b, 0x00, 0x00, 0x00,
    0x73, 0x65, 0x71, 0x75, 0x65, 0x6e, 0x74, 0x69, 0x61, 0x6c, 0x5f, 0x31,
    0x35, 0x2f, 0x71, 0x75, 0x61, 0x6e, 0x74, 0x5f, 0x72, 0x65, 0x5f, 0x6c,
    0x75, 0x5f, 0x31, 0x38, 0x2f, 0x52, 0x65, 0x6c, 0x75, 0x3b, 0x73, 0x65,
    0x71, 0x75, 0x65, 0x6e, 0x74, 0x69, 0x61, 0x6c, 0x5f, 0x31, 0x35, 0x2f,
    0x71, 0x75, 0x61, 0x6e, 0x74, 0x5f, 0x63, 0x6f, 0x6e, 0x76, 0x32, 0x64,
    0x5f, 0x31, 0x38, 0x2f, 0x42, 0x69, 0x61, 0x73, 0x41, 0x64, 0x64, 0x3b,
    0x73, 0x65, 0x71, 0x75, 0x65, 0x6e, 0x74, 0x69, 0x61, 0x6c, 0x5f, 0x31,
    0x35, 0x2f, 0x71, 0x75, 0x61, 0x6e, 0x74, 0x5f, 0x63, 0x6f, 0x6e, 0x76,
    0x32, 0x64, 0x5f, 0x31, 0x38, 0x2f, 0x43, 0x6f, 0x6e, 0x76, 0x32, 0x44,
    0x3b, 0x63, 0x6f, 0x6e, 0x76, 0x32, 0x64, 0x5f, 0x31, 0x38, 0x2f, 0x62,
    0x69, 0x61, 0x73, 0x00, 0x04, 0x00, 0x00, 0x00, 0xff, 0xff, 0xff, 0xff,
    0x06, 0x00, 0x00, 0x00, 0x06, 0x00, 0x00, 0x00, 0x10, 0x00, 0x00, 0x00,
    0x78, 0xfa, 0xff, 0xff, 0x08, 0x00, 0x00, 0x00, 0x0c, 0x00, 0x00, 0x00,
    0x01, 0x00, 0x00, 0x00, 0xc5, 0xa5, 0xf8, 0x3b, 0x01, 0x00, 0x00, 0x00,
    0x80, 0xff, 0xff, 0xff, 0xff, 0xff, 0xff, 0xff, 0x00, 0x00, 0x00, 0x00,
    0x00, 0x00, 0x0a, 0x00, 0x0c, 0x00, 0x00, 0x00, 0x04, 0x00, 0x08, 0x00,
    0x0a, 0x00, 0x00, 0x00, 0x10, 0x00, 0x00, 0x00, 0x04, 0x00, 0x00, 0x00,
    0x01, 0x00, 0x00, 0x00, 0x06, 0x00, 0x00, 0x00, 0x01, 0x00, 0x00, 0x00,
    0x00, 0x00, 0x00, 0x00, 0x0c, 0x00, 0x10, 0x00, 0x0b, 0x00, 0x00, 0x00,
    0x0c, 0x00, 0x04, 0x00, 0x0c, 0x00, 0x00, 0x00, 0x72, 0x00, 0x00, 0x00,
    0x00, 0x00, 0x00, 0x72, 0x01, 0x00, 0x00, 0x00, 0x14, 0x00, 0x1c, 0x00,
    0x08, 0x00, 0x07, 0x00, 0x0c, 0x00, 0x10, 0x00, 0x14, 0x00, 0x00, 0x00,
    0x00, 0x00, 0x18, 0x00, 0x14, 0x00, 0x00, 0x00, 0x00, 0x00, 0x00, 0x09,
    0x14, 0x00, 0x00, 0x00, 0x07, 0x00, 0x00, 0x00, 0x20, 0x00, 0x00, 0x00,
    0xd0, 0x00, 0x00, 0x00, 0xb8, 0x00, 0x00, 0x00, 0x04, 0x00, 0x00, 0x00,
    0x01, 0x00, 0x00, 0x00, 0x08, 0x00, 0x00, 0x00, 0x08, 0x00, 0x00, 0x00,
    0x02, 0x00, 0x00, 0x00, 0x99, 0x00, 0x00, 0x00, 0x73, 0x65, 0x71, 0x75,
    0x65, 0x6e, 0x74, 0x69, 0x61, 0x6c, 0x5f, 0x31, 0x35, 0x2f, 0x71, 0x75,
    0x61, 0x6e, 0x74, 0x69, 0x7a, 0x65, 0x5f, 0x6c, 0x61, 0x79, 0x65, 0x72,
    0x5f, 0x31, 0x33, 0x2f, 0x41, 0x6c, 0x6c, 0x56, 0x61, 0x6c, 0x75, 0x65,
    0x73, 0x51, 0x75, 0x61, 0x6e, 0x74, 0x69, 0x7a, 0x65, 0x2f, 0x46, 0x61,
    0x6b, 0x65, 0x51, 0x75, 0x61, 0x6e, 0x74, 0x57, 0x69, 0x74, 0x68, 0x4d,
    0x69, 0x6e, 0x4d, 0x61, 0x78, 0x56, 0x61, 0x72, 0x73, 0x3b, 0x71, 0x75,
    0x61, 0x6e, 0x74, 0x69, 0x7a, 0x65, 0x5f, 0x6c, 0x61, 0x79, 0x65, 0x72,
    0x5f, 0x31, 0x33, 0x2f, 0x71, 0x75, 0x61, 0x6e, 0x74, 0x69, 0x7a, 0x65,
    0x5f, 0x6c, 0x61, 0x79, 0x65, 0x72, 0x5f, 0x31, 0x33, 0x5f, 0x6d, 0x69,
    0x6e, 0x3b, 0x71, 0x75, 0x61, 0x6e, 0x74, 0x69, 0x7a, 0x65, 0x5f, 0x6c,
    0x61, 0x79, 0x65, 0x72, 0x5f, 0x31, 0x33, 0x2f, 0x71, 0x75, 0x61, 0x6e,
    0x74, 0x69, 0x7a, 0x65, 0x5f, 0x6c, 0x61, 0x79, 0x65, 0x72, 0x5f, 0x31,
    0x33, 0x5f, 0x6d, 0x61, 0x78, 0x00, 0x00, 0x00, 0x04, 0x00, 0x00, 0x00,
    0xff, 0xff, 0xff, 0xff, 0x08, 0x00, 0x00, 0x00, 0x08, 0x00, 0x00, 0x00,
    0x02, 0x00, 0x00, 0x00, 0xd8, 0xfb, 0xff, 0xff, 0x08, 0x00, 0x00, 0x00,
    0x0c, 0x00, 0x00, 0x00, 0x01, 0x00, 0x00, 0x00, 0xad, 0x64, 0x83, 0x3b,
    0x01, 0x00, 0x00, 0x00, 0x80, 0xff, 0xff, 0xff, 0xff, 0xff, 0xff, 0xff,
    0x12, 0xfb, 0xff, 0xff, 0x04, 0x00, 0x00, 0x00, 0x28, 0x00, 0x00, 0x00,
    0x5b, 0xff, 0xff, 0xff, 0xf9, 0xfe, 0xff, 0xff, 0x86, 0x00, 0x00, 0x00,
    0x33, 0xfe, 0xff, 0xff, 0xd6, 0x00, 0x00, 0x00, 0xa8, 0x01, 0x00, 0x00,
    0x6b, 0x00, 0x00, 0x00, 0x73, 0xff, 0xff, 0xff, 0x52, 0xfe, 0xff, 0xff,
    0xdb, 0xff, 0xff, 0xff, 0x2a, 0xfb, 0xff, 0xff, 0x00, 0x00, 0x00, 0x02,
    0x10, 0x00, 0x00, 0x00, 0x06, 0x00, 0x00, 0x00, 0x10, 0x00, 0x00, 0x00,
    0x20, 0x00, 0x00, 0x00, 0x01, 0x00, 0x00, 0x00, 0x0a, 0x00, 0x00, 0x00,
    0x0d, 0x00, 0x00, 0x00, 0x64, 0x65, 0x6e, 0x73, 0x65, 0x5f, 0x33, 0x31,
    0x2f, 0x62, 0x69, 0x61, 0x73, 0x00, 0x00, 0x00, 0x60, 0xfc, 0xff, 0xff,
    0x08, 0x00, 0x00, 0x00, 0x0c, 0x00, 0x00, 0x00, 0x01, 0x00, 0x00, 0x00,
    0x33, 0x70, 0x28, 0x3b, 0x01, 0x00, 0x00, 0x00, 0x00, 0x00, 0x00, 0x00,
    0x00, 0x00, 0x00, 0x00, 0x9a, 0xfb, 0xff, 0xff, 0x04, 0x00, 0x00, 0x00,
    0x40, 0x00, 0x00, 0x00, 0xfd, 0x02, 0x00, 0x00, 0x19, 0xff, 0xff, 0xff,
    0x3c, 0xf6, 0xff, 0xff, 0x99, 0xf8, 0xff, 0xff, 0x98, 0x09, 0x00, 0x00,
    0xa0, 0x02, 0x00, 0x00, 0xee, 0x0a, 0x00, 0x00, 0xb3, 0xff, 0xff, 0xff,
    0x01, 0x00, 0x00, 0x00, 0x87, 0x03, 0x00, 0x00, 0xa3, 0x00, 0x00, 0x00,
    0x03, 0x05, 0x00, 0x00, 0xe6, 0xf9, 0xff, 0xff, 0x29, 0x01, 0x00, 0x00,
    0x93, 0x07, 0x00, 0x00, 0xc2, 0x01, 0x00, 0x00, 0xca, 0xfb, 0xff, 0xff,
    0x00, 0x00, 0x00, 0x02, 0x10, 0x00, 0x00, 0x00, 0x05, 0x00, 0x00, 0x00,
    0x10, 0x00, 0x00, 0x00, 0x20, 0x00, 0x00, 0x00, 0x01, 0x00, 0x00, 0x00,
    0x10, 0x00, 0x00, 0x00, 0x0d, 0x00, 0x00, 0x00, 0x64, 0x65, 0x6e, 0x73,
    0x65, 0x5f, 0x33, 0x30, 0x2f, 0x62, 0x69, 0x61, 0x73, 0x00, 0x00, 0x00,
    0x00, 0xfd, 0xff, 0xff, 0x08, 0x00, 0x00, 0x00, 0x0c, 0x00, 0x00, 0x00,
    0x01, 0x00, 0x00, 0x00, 0x73, 0xe2, 0xd4, 0x39, 0x01, 0x00, 0x00, 0x00,
    0x00, 0x00, 0x00, 0x00, 0x00, 0x00, 0x00, 0x00, 0x00, 0x00, 0x00, 0x00,
    0x3e, 0xfc, 0xff, 0xff, 0x04, 0x00, 0x00, 0x00, 0x40, 0x00, 0x00, 0x00,
    0x07, 0xf8, 0xff, 0xff, 0xbb, 0x9b, 0xff, 0xff, 0x48, 0x11, 0x00, 0x00,
    0x0d, 0x0d, 0x00, 0x00, 0x5e, 0xde, 0xff, 0xff, 0x41, 0x09, 0x00, 0x00,
    0x92, 0x1e, 0x00, 0x00, 0xdd, 0xec, 0xff, 0xff, 0x59, 0xf9, 0xff, 0xff,
    0x54, 0x18, 0x00, 0x00, 0xe8, 0x1a, 0x00, 0x00, 0xe6, 0x06, 0x00, 0x00,
    0x71, 0xfb, 0xff, 0xff, 0x92, 0x00, 0x00, 0x00, 0xa3, 0x14, 0x00, 0x00,
    0xb9, 0x1d, 0x00, 0x00, 0x6e, 0xfc, 0xff, 0xff, 0x00, 0x00, 0x00, 0x02,
    0x10, 0x00, 0x00, 0x00, 0x04, 0x00, 0x00, 0x00, 0x10, 0x00, 0x00, 0x00,
    0x20, 0x00, 0x00, 0x00, 0x01, 0x00, 0x00, 0x00, 0x10, 0x00, 0x00, 0x00,
    0x0e, 0x00, 0x00, 0x00, 0x63, 0x6f, 0x6e, 0x76, 0x32, 0x64, 0x5f, 0x31,
    0x38, 0x2f, 0x62, 0x69, 0x61, 0x73, 0x00, 0x00, 0xa4, 0xfd, 0xff, 0xff,
    0x08, 0x00, 0x00, 0x00, 0x48, 0x00, 0x00, 0x00, 0x10, 0x00, 0x00, 0x00,
    0xc7, 0xd6, 0xbc, 0x36, 0x8a, 0x89, 0xed, 0x37, 0x02, 0x57, 0x77, 0x38,
    0x86, 0x2a, 0x5d, 0x38, 0xe7, 0x64, 0x51, 0x38, 0xc8, 0x80, 0x78, 0x38,
    0x8b, 0x88, 0x70, 0x38, 0xe6, 0xf6, 0x56, 0x38, 0xa7, 0x4a, 0x5d, 0x38,
    0x2a, 0xcd, 0x5a, 0x38, 0xe9, 0x7f, 0x72, 0x38, 0x7f, 0x73, 0x71, 0x38,
    0x37, 0x6c, 0x1a, 0x38, 0xa9, 0x24, 0x56, 0x38, 0x29, 0x29, 0x7d, 0x38,
    0x00, 0x97, 0x8e, 0x38, 0x10, 0x00, 0x00, 0x00, 0x00, 0x00, 0x00, 0x00,
    0x00, 0x00, 0x00, 0x00, 0x00, 0x00, 0x00, 0x00, 0x00, 0x00, 0x00, 0x00,
    0x00, 0x00, 0x00, 0x00, 0x00, 0x00, 0x00, 0x00, 0x00, 0x00, 0x00, 0x00,
    0x00, 0x00, 0x00, 0x00, 0x00, 0x00, 0x00, 0x00, 0x00, 0x00, 0x00, 0x00,
    0x00, 0x00, 0x00, 0x00, 0x00, 0x00, 0x00, 0x00, 0x00, 0x00, 0x00, 0x00,
    0x00, 0x00, 0x00, 0x00, 0x00, 0x00, 0x00, 0x00, 0x00, 0x00, 0x00, 0x00,
    0x00, 0x00, 0x00, 0x00, 0x00, 0x00, 0x00, 0x00, 0x00, 0x00, 0x00, 0x00,
    0x00, 0x00, 0x00, 0x00, 0x00, 0x00, 0x00, 0x00, 0x00, 0x00, 0x00, 0x00,
    0x00, 0x00, 0x00, 0x00, 0x00, 0x00, 0x00, 0x00, 0x00, 0x00, 0x00, 0x00,
    0x00, 0x00, 0x00, 0x00, 0x00, 0x00, 0x00, 0x00, 0x00, 0x00, 0x00, 0x00,
    0x00, 0x00, 0x00, 0x00, 0x00, 0x00, 0x00, 0x00, 0x00, 0x00, 0x00, 0x00,
    0x00, 0x00, 0x00, 0x00, 0x00, 0x00, 0x00, 0x00, 0x96, 0xfd, 0xff, 0xff,
    0x04, 0x00, 0x00, 0x00, 0x20, 0x01, 0x00, 0x00, 0x8c, 0xfb, 0x9f, 0x36,
    0xa4, 0x14, 0x15, 0x3e, 0x13, 0x13, 0x81, 0x8c, 0x60, 0x84, 0xf0, 0xfe,
    0x52, 0x96, 0x3d, 0xc5, 0x50, 0xbf, 0xd8, 0x81, 0x7f, 0xc4, 0x4b, 0x9b,
    0xea, 0xf8, 0x5c, 0xc9, 0x4d, 0x1f, 0xce, 0x16, 0x1f, 0xe1, 0x2a, 0xe5,
    0xf5, 0x12, 0x26, 0x02, 0x24, 0x02, 0xe4, 0x48, 0xdf, 0xc1, 0x19, 0xf5,
    0x81, 0xd6, 0x36, 0xe1, 0xe9, 0x29, 0xce, 0x36, 0x31, 0x09, 0xb1, 0x50,
    0xe7, 0x1b, 0x24, 0xec, 0x81, 0xc2, 0x1d, 0xeb, 0xcf, 0xf7, 0xea, 0x8c,
    0xfe, 0x43, 0x1b, 0xfe, 0x26, 0xcd, 0xf0, 0x81, 0x43, 0xfa, 0x44, 0xb6,
    0x1c, 0xfc, 0xb5, 0x0a, 0xb3, 0x81, 0x14, 0x01, 0xfd, 0x1b, 0x02, 0x00,
    0xfd, 0x2d, 0x2c, 0x01, 0x48, 0x08, 0x02, 0xf9, 0xa4, 0x46, 0xd0, 0x32,
    0xc9, 0x81, 0xe4, 0x0d, 0x25, 0x19, 0xf8, 0x14, 0x1b, 0xec, 0x4a, 0xbe,
    0x17, 0x07, 0x81, 0xc6, 0xe1, 0xe0, 0x38, 0x94, 0xf2, 0x14, 0x2a, 0xc3,
    0x49, 0xa6, 0x21, 0xfd, 0x59, 0xb7, 0x3d, 0xd1, 0x33, 0x38, 0xc2, 0x81,
    0x20, 0xe5, 0xda, 0x28, 0xf5, 0xca, 0xf3, 0x2b, 0x1a, 0x0d, 0xe6, 0x30,
    0xd5, 0x37, 0xc7, 0x81, 0xe8, 0x09, 0xfb, 0x06, 0x02, 0xd7, 0xea, 0x27,
    0xe2, 0x3d, 0x3a, 0xe4, 0x0f, 0x35, 0xf8, 0x22, 0x20, 0xdb, 0x6f, 0xee,
    0x23, 0x16, 0xbe, 0x81, 0xfd, 0xe8, 0x02, 0x0d, 0xfe, 0x11, 0xb2, 0x86,
    0xe3, 0xf8, 0x01, 0xfc, 0x14, 0xe8, 0xcc, 0x81, 0x16, 0xd7, 0x19, 0xd9,
    0xf2, 0x2c, 0x12, 0xfd, 0x26, 0x1a, 0xc9, 0x56, 0xe0, 0x26, 0xbd, 0x3c,
    0xdb, 0xbc, 0x12, 0x0d, 0x40, 0x4c, 0xe8, 0xd4, 0xa5, 0xa4, 0x7f, 0x10,
    0x24, 0xdf, 0xcc, 0x24, 0x4f, 0x1b, 0x4b, 0xe1, 0x81, 0xa4, 0x28, 0x2d,
    0x4c, 0xb1, 0xc0, 0x18, 0xf3, 0xe7, 0x0b, 0xb7, 0xb5, 0xcc, 0xdf, 0xdb,
    0x2e, 0x81, 0xde, 0xfc, 0x1d, 0xd7, 0x28, 0xf0, 0x0a, 0xf9, 0x42, 0xf5,
    0x28, 0xe6, 0x36, 0xb9, 0x2b, 0xfc, 0xfc, 0x29, 0x2f, 0xf4, 0xe0, 0x10,
    0xeb, 0x05, 0xec, 0xf8, 0x93, 0x81, 0x01, 0xf3, 0xa6, 0xfe, 0xff, 0xff,
    0x00, 0x00, 0x00, 0x09, 0x10, 0x00, 0x00, 0x00, 0x03, 0x00, 0x00, 0x00,
    0x1c, 0x00, 0x00, 0x00, 0x50, 0x00, 0x00, 0x00, 0x04, 0x00, 0x00, 0x00,
    0x10, 0x00, 0x00, 0x00, 0x03, 0x00, 0x00, 0x00, 0x03, 0x00, 0x00, 0x00,
    0x02, 0x00, 0x00, 0x00, 0x24, 0x00, 0x00, 0x00, 0x73, 0x65, 0x71, 0x75,
    0x65, 0x6e, 0x74, 0x69, 0x61, 0x6c, 0x5f, 0x31, 0x35, 0x2f, 0x71, 0x75,
    0x61, 0x6e, 0x74, 0x5f, 0x63, 0x6f, 0x6e, 0x76, 0x32, 0x64, 0x5f, 0x31,
    0x38, 0x2f, 0x43, 0x6f, 0x6e, 0x76, 0x32, 0x44, 0x00, 0x00, 0x00, 0x00,
    0x0c, 0x00, 0x0c, 0x00, 0x00, 0x00, 0x00, 0x00, 0x04, 0x00, 0x08, 0x00,
    0x0c, 0x00, 0x00, 0x00, 0x08, 0x00, 0x00, 0x00, 0x48, 0x00, 0x00, 0x00,
    0x10, 0x00, 0x00, 0x00, 0x51, 0xf6, 0xb7, 0x3a, 0x1e, 0x67, 0xe7, 0x3b,
    0xc8, 0xf3, 0x70, 0x3c, 0x57, 0x74, 0x57, 0x3c, 0x8b, 0xfc, 0x4b, 0x3c,
    0xdd, 0x15, 0x72, 0x3c, 0x51, 0x52, 0x6a, 0x3c, 0xb6, 0x69, 0x51, 0x3c,
    0xa3, 0x93, 0x57, 0x3c, 0x9c, 0x26, 0x55, 0x3c, 0xae, 0x3c, 0x6c, 0x3c,
    0x33, 0x37, 0x6b, 0x3c, 0x4a, 0x6f, 0x16, 0x3c, 0xe8, 0x9c, 0x50, 0x3c,
    0x73, 0x9f, 0x76, 0x3c, 0x4e, 0xe8, 0x8a, 0x3c, 0x10, 0x00, 0x00, 0x00,
    0x00, 0x00, 0x00, 0x00, 0x00, 0x00, 0x00, 0x00, 0x00, 0x00, 0x00, 0x00,
    0x00, 0x00, 0x00, 0x00, 0x00, 0x00, 0x00, 0x00, 0x00, 0x00, 0x00, 0x00,
    0x00, 0x00, 0x00, 0x00, 0x00, 0x00, 0x00, 0x00, 0x00, 0x00, 0x00, 0x00,
    0x00, 0x00, 0x00, 0x00, 0x00, 0x00, 0x00, 0x00, 0x00, 0x00, 0x00, 0x00,
    0x00, 0x00, 0x00, 0x00, 0x00, 0x00, 0x00, 0x00, 0x00, 0x00, 0x00, 0x00,
    0x00, 0x00, 0x00, 0x00, 0x00, 0x00, 0x00, 0x00, 0x00, 0x00, 0x00, 0x00,
    0x00, 0x00, 0x00, 0x00, 0x00, 0x00, 0x00, 0x00, 0x00, 0x00, 0x00, 0x00,
    0x00, 0x00, 0x00, 0x00, 0x00, 0x00, 0x00, 0x00, 0x00, 0x00, 0x00, 0x00,
    0x00, 0x00, 0x00, 0x00, 0x00, 0x00, 0x00, 0x00, 0x00, 0x00, 0x00, 0x00,
    0x00, 0x00, 0x00, 0x00, 0x00, 0x00, 0x00, 0x00, 0x00, 0x00, 0x00, 0x00,
    0x00, 0x00, 0x00, 0x00, 0x00, 0x00, 0x00, 0x00, 0x00, 0x00, 0x00, 0x00,
    0x00, 0x00, 0x06, 0x00, 0x08, 0x00, 0x04, 0x00, 0x06, 0x00, 0x00, 0x00,
    0x04, 0x00, 0x00, 0x00, 0x08, 0x00, 0x00, 0x00, 0xff, 0xff, 0xff, 0xff,
    0x90, 0x00, 0x00, 0x00, 0x00, 0x00, 0x0e, 0x00, 0x18, 0x00, 0x08, 0x00,
    0x07, 0x00, 0x0c, 0x00, 0x10, 0x00, 0x14, 0x00, 0x0e, 0x00, 0x00, 0x00,
    0x00, 0x00, 0x00, 0x02, 0x10, 0x00, 0x00, 0x00, 0x02, 0x00, 0x00, 0x00,
    0x10, 0x00, 0x00, 0x00, 0x38, 0x00, 0x00, 0x00, 0x01, 0x00, 0x00, 0x00,
    0x02, 0x00, 0x00, 0x00, 0x24, 0x00, 0x00, 0x00, 0x73, 0x65, 0x71, 0x75,
    0x65, 0x6e, 0x74, 0x69, 0x61, 0x6c, 0x5f, 0x31, 0x35, 0x2f, 0x71, 0x75,
    0x61, 0x6e, 0x74, 0x5f, 0x66, 0x6c, 0x61, 0x74, 0x74, 0x65, 0x6e, 0x5f,
    0x31, 0x35, 0x2f, 0x43, 0x6f, 0x6e, 0x73, 0x74, 0x00, 0x00, 0x00, 0x00,
    0x7c, 0xff, 0xff, 0xff, 0x14, 0x00, 0x18, 0x00, 0x04, 0x00, 0x00, 0x00,
    0x08, 0x00, 0x0c, 0x00, 0x10, 0x00, 0x00, 0x00, 0x00, 0x00, 0x14, 0x00,
    0x14, 0x00, 0x00, 0x00, 0x14, 0x00, 0x00, 0x00, 0x01, 0x00, 0x00, 0x00,
    0x20, 0x00, 0x00, 0x00, 0x58, 0x00, 0x00, 0x00, 0x40, 0x00, 0x00, 0x00,
    0x04, 0x00, 0x00, 0x00, 0x01, 0x00, 0x00, 0x00, 0x08, 0x00, 0x00, 0x00,
    0x08, 0x00, 0x00, 0x00, 0x02, 0x00, 0x00, 0x00, 0x21, 0x00, 0x00, 0x00,
    0x73, 0x65, 0x72, 0x76, 0x69, 0x6e, 0x67, 0x5f, 0x64, 0x65, 0x66, 0x61,
    0x75, 0x6c, 0x74, 0x5f, 0x63, 0x6f, 0x6e, 0x76, 0x32, 0x64, 0x5f, 0x31,
    0x38, 0x5f, 0x69, 0x6e, 0x70, 0x75, 0x74, 0x3a, 0x30, 0x00, 0x00, 0x00,
    0x04, 0x00, 0x00, 0x00, 0xff, 0xff, 0xff, 0xff, 0x08, 0x00, 0x00, 0x00,
    0x08, 0x00, 0x00, 0x00, 0x02, 0x00, 0x00, 0x00, 0xfc, 0xff, 0xff, 0xff,
    0x04, 0x00, 0x04, 0x00, 0x04, 0x00, 0x00, 0x00};

#endif  // NUMBER_MODEL_H
