#ifndef NUMBER_MODEL_H
#define NUMBER_MODEL_H

unsigned int number_model_len = 9960;
unsigned char number_model[] = {
    0x1c, 0x00, 0x00, 0x00, 0x54, 0x46, 0x4c, 0x33, 0x14, 0x00, 0x20, 0x00,
    0x04, 0x00, 0x08, 0x00, 0x0c, 0x00, 0x10, 0x00, 0x14, 0x00, 0x00, 0x00,
    0x18, 0x00, 0x1c, 0x00, 0x14, 0x00, 0x00, 0x00, 0x03, 0x00, 0x00, 0x00,
    0x18, 0x00, 0x00, 0x00, 0x34, 0x00, 0x00, 0x00, 0x60, 0x01, 0x00, 0x00,
    0x34, 0x00, 0x00, 0x00, 0x08, 0x01, 0x00, 0x00, 0x78, 0x00, 0x00, 0x00,
    0x07, 0x00, 0x00, 0x00, 0xb0, 0x1c, 0x00, 0x00, 0x80, 0x1b, 0x00, 0x00,
    0x78, 0x1a, 0x00, 0x00, 0x84, 0x19, 0x00, 0x00, 0xbc, 0x05, 0x00, 0x00,
    0xac, 0x02, 0x00, 0x00, 0x14, 0x02, 0x00, 0x00, 0x01, 0x00, 0x00, 0x00,
    0x50, 0x01, 0x00, 0x00, 0x12, 0x00, 0x00, 0x00, 0x7c, 0x26, 0x00, 0x00,
    0x78, 0x26, 0x00, 0x00, 0x7c, 0x25, 0x00, 0x00, 0x28, 0x21, 0x00, 0x00,
    0xcc, 0x1e, 0x00, 0x00, 0x24, 0x1e, 0x00, 0x00, 0x98, 0x1d, 0x00, 0x00,
    0x60, 0x26, 0x00, 0x00, 0x5c, 0x26, 0x00, 0x00, 0x58, 0x26, 0x00, 0x00,
    0x54, 0x26, 0x00, 0x00, 0x50, 0x06, 0x00, 0x00, 0x4c, 0x26, 0x00, 0x00,
    0xd0, 0x03, 0x00, 0x00, 0x44, 0x26, 0x00, 0x00, 0x40, 0x26, 0x00, 0x00,
    0x3c, 0x26, 0x00, 0x00, 0xc4, 0x00, 0x00, 0x00, 0x01, 0x00, 0x00, 0x00,
    0x10, 0x00, 0x00, 0x00, 0x00, 0x00, 0x0a, 0x00, 0x10, 0x00, 0x0c, 0x00,
    0x08, 0x00, 0x04, 0x00, 0x0a, 0x00, 0x00, 0x00, 0x0c, 0x00, 0x00, 0x00,
    0x1c, 0x00, 0x00, 0x00, 0x20, 0x00, 0x00, 0x00, 0x0f, 0x00, 0x00, 0x00,
    0x73, 0x65, 0x72, 0x76, 0x69, 0x6e, 0x67, 0x5f, 0x64, 0x65, 0x66, 0x61,
    0x75, 0x6c, 0x74, 0x00, 0x01, 0x00, 0x00, 0x00, 0x14, 0x00, 0x00, 0x00,
    0x01, 0x00, 0x00, 0x00, 0x2c, 0x00, 0x00, 0x00, 0x08, 0x00, 0x0c, 0x00,
    0x08, 0x00, 0x04, 0x00, 0x08, 0x00, 0x00, 0x00, 0x0f, 0x00, 0x00, 0x00,
    0x04, 0x00, 0x00, 0x00, 0x0e, 0x00, 0x00, 0x00, 0x71, 0x75, 0x61, 0x6e,
    0x74, 0x5f, 0x64, 0x65, 0x6e, 0x73, 0x65, 0x5f, 0x32, 0x35, 0x00, 0x00,
    0x3a, 0xdb, 0xff, 0xff, 0x04, 0x00, 0x00, 0x00, 0x0f, 0x00, 0x00, 0x00,
    0x63, 0x6f, 0x6e, 0x76, 0x32, 0x64, 0x5f, 0x31, 0x35, 0x5f, 0x69, 0x6e,
    0x70, 0x75, 0x74, 0x00, 0x01, 0x00, 0x00, 0x00, 0x0c, 0x00, 0x00, 0x00,
    0x08, 0x00, 0x0c, 0x00, 0x04, 0x00, 0x08, 0x00, 0x08, 0x00, 0x00, 0x00,
    0x08, 0x00, 0x00, 0x00, 0x11, 0x00, 0x00, 0x00, 0x13, 0x00, 0x00, 0x00,
    0x6d, 0x69, 0x6e, 0x5f, 0x72, 0x75, 0x6e, 0x74, 0x69, 0x6d, 0x65, 0x5f,
    0x76, 0x65, 0x72, 0x73, 0x69, 0x6f, 0x6e, 0x00, 0x8a, 0xdb, 0xff, 0xff,
    0x04, 0x00, 0x00, 0x00, 0x10, 0x00, 0x00, 0x00, 0x31, 0x2e, 0x31, 0x34,
    0x2e, 0x30, 0x00, 0x00, 0x00, 0x00, 0x00, 0x00, 0x00, 0x00, 0x00, 0x00,
    0x0f, 0x00, 0x00, 0x00, 0x4d, 0x4c, 0x49, 0x52, 0x20, 0x43, 0x6f, 0x6e,
    0x76, 0x65, 0x72, 0x74, 0x65, 0x64, 0x2e, 0x00, 0x00, 0x00, 0x0e, 0x00,
    0x18, 0x00, 0x04, 0x00, 0x08, 0x00, 0x0c, 0x00, 0x10, 0x00, 0x14, 0x00,
    0x0e, 0x00, 0x00, 0x00, 0x14, 0x00, 0x00, 0x00, 0x54, 0x00, 0x00, 0x00,
    0x58, 0x00, 0x00, 0x00, 0x5c, 0x00, 0x00, 0x00, 0x7c, 0x00, 0x00, 0x00,
    0x10, 0x00, 0x00, 0x00, 0xa8, 0x24, 0x00, 0x00, 0x40, 0x24, 0x00, 0x00,
    0x14, 0x22, 0x00, 0x00, 0xf8, 0x1d, 0x00, 0x00, 0x10, 0x1d, 0x00, 0x00,
    0x6c, 0x1c, 0x00, 0x00, 0x30, 0x1b, 0x00, 0x00, 0xec, 0x19, 0x00, 0x00,
    0xe4, 0x18, 0x00, 0x00, 0xf0, 0x17, 0x00, 0x00, 0xfc, 0x16, 0x00, 0x00,
    0x24, 0x04, 0x00, 0x00, 0x1c, 0x03, 0x00, 0x00, 0xc4, 0x01, 0x00, 0x00,
    0x0c, 0x01, 0x00, 0x00, 0x74, 0x00, 0x00, 0x00, 0x01, 0x00, 0x00, 0x00,
    0x00, 0x00, 0x00, 0x00, 0x01, 0x00, 0x00, 0x00, 0x0f, 0x00, 0x00, 0x00,
    0x08, 0x00, 0x00, 0x00, 0xa8, 0x1a, 0x00, 0x00, 0x54, 0x19, 0x00, 0x00,
    0x48, 0x18, 0x00, 0x00, 0x80, 0x17, 0x00, 0x00, 0x9c, 0x03, 0x00, 0x00,
    0x5c, 0x01, 0x00, 0x00, 0x98, 0x00, 0x00, 0x00, 0x10, 0x00, 0x00, 0x00,
    0x04, 0x00, 0x00, 0x00, 0x6d, 0x61, 0x69, 0x6e, 0x00, 0x00, 0x00, 0x00,
    0xaa, 0xe8, 0xff, 0xff, 0x06, 0x00, 0x00, 0x00, 0x10, 0x00, 0x00, 0x00,
    0x04, 0x00, 0x00, 0x00, 0x01, 0x00, 0x00, 0x00, 0x0f, 0x00, 0x00, 0x00,
    0x01, 0x00, 0x00, 0x00, 0x0e, 0x00, 0x00, 0x00, 0x88, 0xe5, 0xff, 0xff,
    0x06, 0x00, 0x00, 0x00, 0x00, 0x00, 0x00, 0x06, 0x02, 0x00, 0x00, 0x00,
    0x1c, 0xdc, 0xff, 0xff, 0x14, 0x00, 0x00, 0x00, 0x10, 0x00, 0x00, 0x00,
    0x18, 0x00, 0x00, 0x00, 0x40, 0x00, 0x00, 0x00, 0x30, 0x00, 0x00, 0x00,
    0x02, 0x00, 0x00, 0x00, 0x01, 0x00, 0x00, 0x00, 0x0a, 0x00, 0x00, 0x00,
    0x19, 0x00, 0x00, 0x00, 0x53, 0x74, 0x61, 0x74, 0x65, 0x66, 0x75, 0x6c,
    0x50, 0x61, 0x72, 0x74, 0x69, 0x74, 0x69, 0x6f, 0x6e, 0x65, 0x64, 0x43,
    0x61, 0x6c, 0x6c, 0x3a, 0x30, 0x00, 0x00, 0x00, 0x02, 0x00, 0x00, 0x00,
    0xff, 0xff, 0xff, 0xff, 0x0a, 0x00, 0x00, 0x00, 0xec, 0xdb, 0xff, 0xff,
    0x66, 0xe7, 0xff, 0xff, 0x00, 0x00, 0x00, 0x09, 0x05, 0x00, 0x00, 0x00,
    0x1c, 0x00, 0x00, 0x00, 0x10, 0x00, 0x00, 0x00, 0x04, 0x00, 0x00, 0x00,
    0x02, 0xdd, 0xff, 0xff, 0x00, 0x00, 0x80, 0x3f, 0x01, 0x00, 0x00, 0x00,
    0x0e, 0x00, 0x00, 0x00, 0x01, 0x00, 0x00, 0x00, 0x0d, 0x00, 0x00, 0x00,
    0x1c, 0xe6, 0xff, 0xff, 0x19, 0x00, 0x00, 0x00, 0x00, 0x00, 0x00, 0x19,
    0x02, 0x00, 0x00, 0x00, 0x10, 0xe6, 0xff, 0xff, 0x00, 0x00, 0x00, 0x09,
    0x14, 0x00, 0x00, 0x00, 0x0f, 0x00, 0x00, 0x00, 0x18, 0x00, 0x00, 0x00,
    0x4c, 0x00, 0x00, 0x00, 0x3c, 0x00, 0x00, 0x00, 0x02, 0x00, 0x00, 0x00,
    0x01, 0x00, 0x00, 0x00, 0x0a, 0x00, 0x00, 0x00, 0x24, 0x00, 0x00, 0x00,
    0x73, 0x65, 0x71, 0x75, 0x65, 0x6e, 0x74, 0x69, 0x61, 0x6c, 0x5f, 0x31,
    0x32, 0x2f, 0x71, 0x75, 0x61, 0x6e, 0x74, 0x5f, 0x64, 0x65, 0x6e, 0x73,
    0x65, 0x5f, 0x32, 0x35, 0x2f, 0x53, 0x6f, 0x66, 0x74, 0x6d, 0x61, 0x78,
    0x00, 0x00, 0x00, 0x00, 0x02, 0x00, 0x00, 0x00, 0xff, 0xff, 0xff, 0xff,
    0x0a, 0x00, 0x00, 0x00, 0x30, 0xdf, 0xff, 0xff, 0x08, 0x00, 0x00, 0x00,
    0x0c, 0x00, 0x00, 0x00, 0x01, 0x00, 0x00, 0x00, 0x00, 0x00, 0x80, 0x3b,
    0x01, 0x00, 0x00, 0x00, 0x80, 0xff, 0xff, 0xff, 0xff, 0xff, 0xff, 0xff,
    0x26, 0xe8, 0xff, 0xff, 0x00, 0x00, 0x00, 0x08, 0x04, 0x00, 0x00, 0x00,
    0x18, 0x00, 0x00, 0x00, 0x0c, 0x00, 0x00, 0x00, 0x04, 0x00, 0x00, 0x00,
    0xc8, 0xdc, 0xff, 0xff, 0x01, 0x00, 0x00, 0x00, 0x0d, 0x00, 0x00, 0x00,
    0x03, 0x00, 0x00, 0x00, 0x0b, 0x00, 0x00, 0x00, 0x0c, 0x00, 0x00, 0x00,
    0x05, 0x00, 0x00, 0x00, 0xc4, 0xe6, 0xff, 0xff, 0x00, 0x00, 0x00, 0x09,
    0x14, 0x00, 0x00, 0x00, 0x0e, 0x00, 0x00, 0x00, 0x18, 0x00, 0x00, 0x00,
    0x70, 0x00, 0x00, 0x00, 0x60, 0x00, 0x00, 0x00, 0x02, 0x00, 0x00, 0x00,
    0x01, 0x00, 0x00, 0x00, 0x0a, 0x00, 0x00, 0x00, 0x48, 0x00, 0x00, 0x00,
    0x73, 0x65, 0x71, 0x75, 0x65, 0x6e, 0x74, 0x69, 0x61, 0x6c, 0x5f, 0x31,
    0x32, 0x2f, 0x71, 0x75, 0x61, 0x6e, 0x74, 0x5f, 0x64, 0x65, 0x6e, 0x73,
    0x65, 0x5f, 0x32, 0x35, 0x2f, 0x4d, 0x61, 0x74, 0x4d, 0x75, 0x6c, 0x3b,
    0x73, 0x65, 0x71, 0x75, 0x65, 0x6e, 0x74, 0x69, 0x61, 0x6c, 0x5f, 0x31,
    0x32, 0x2f, 0x71, 0x75, 0x61, 0x6e, 0x74, 0x5f, 0x64, 0x65, 0x6e, 0x73,
    0x65, 0x5f, 0x32, 0x35, 0x2f, 0x42, 0x69, 0x61, 0x73, 0x41, 0x64, 0x64,
    0x00, 0x00, 0x00, 0x00, 0x02, 0x00, 0x00, 0x00, 0xff, 0xff, 0xff, 0xff,
    0x0a, 0x00, 0x00, 0x00, 0x08, 0xe0, 0xff, 0xff, 0x08, 0x00, 0x00, 0x00,
    0x0c, 0x00, 0x00, 0x00, 0x01, 0x00, 0x00, 0x00, 0x25, 0x50, 0xeb, 0x3e,
    0x01, 0x00, 0x00, 0x00, 0x32, 0x00, 0x00, 0x00, 0x00, 0x00, 0x00, 0x00,
    0x00, 0x00, 0x00, 0x00, 0x86, 0xde, 0xff, 0xff, 0x04, 0x00, 0x00, 0x00,
    0xa0, 0x00, 0x00, 0x00, 0x1b, 0xb8, 0x40, 0x02, 0xe5, 0xef, 0xfe, 0x9f,
    0x1a, 0xce, 0xe7, 0x01, 0xbf, 0x17, 0x1b, 0xa0, 0xef, 0x31, 0xcf, 0xf7,
    0x81, 0xa1, 0x04, 0xc9, 0x23, 0x02, 0xca, 0x1b, 0x08, 0xfe, 0x26, 0x82,
    0x1d, 0x1d, 0xe8, 0xfe, 0xa0, 0xa1, 0xf3, 0xc9, 0xd3, 0x0b, 0xdc, 0x28,
    0x17, 0xd3, 0xf9, 0x15, 0xa7, 0xef, 0x21, 0xff, 0xee, 0x11, 0xc2, 0x0e,
    0x12, 0x1e, 0xea, 0x3c, 0xda, 0xc0, 0x02, 0xeb, 0xca, 0xd8, 0xe4, 0xeb,
    0x11, 0x08, 0x0c, 0x0d, 0xb6, 0xe9, 0x32, 0xc9, 0x28, 0x03, 0x2b, 0x17,
    0xe7, 0xfb, 0x15, 0xf9, 0x2c, 0x26, 0x93, 0x27, 0x02, 0xb6, 0xe7, 0xce,
    0xb3, 0xd9, 0x0b, 0x0f, 0x0d, 0xf7, 0xbb, 0xfb, 0xdb, 0x16, 0x11, 0xfb,
    0xc8, 0xda, 0xca, 0x1c, 0x0c, 0x0d, 0xc4, 0x03, 0x22, 0xc1, 0xb9, 0x0c,
    0xb4, 0x18, 0x21, 0xbf, 0xe8, 0x1c, 0xbf, 0xd1, 0xd3, 0xe4, 0x22, 0xf5,
    0x11, 0xd3, 0xfd, 0x0d, 0x2e, 0xd7, 0x11, 0x0b, 0x0c, 0x19, 0x0c, 0xc3,
    0xff, 0xfb, 0xdf, 0x07, 0xdf, 0x1b, 0x13, 0xfd, 0xef, 0xf5, 0xd8, 0x1c,
    0xf6, 0x03, 0x54, 0xdb, 0xd4, 0x29, 0x0b, 0xe4, 0x16, 0xdf, 0xff, 0xff,
    0x00, 0x00, 0x00, 0x09, 0x10, 0x00, 0x00, 0x00, 0x0d, 0x00, 0x00, 0x00,
    0x14, 0x00, 0x00, 0x00, 0x7c, 0x00, 0x00, 0x00, 0x02, 0x00, 0x00, 0x00,
    0x0a, 0x00, 0x00, 0x00, 0x10, 0x00, 0x00, 0x00, 0x67, 0x00, 0x00, 0x00,
    0x73, 0x65, 0x71, 0x75, 0x65, 0x6e, 0x74, 0x69, 0x61, 0x6c, 0x5f, 0x31,
    0x32, 0x2f, 0x71, 0x75, 0x61, 0x6e, 0x74, 0x5f, 0x64, 0x65, 0x6e, 0x73,
    0x65, 0x5f, 0x32, 0x35, 0x2f, 0x4d, 0x61, 0x74, 0x4d, 0x75, 0x6c, 0x3b,
    0x73, 0x65, 0x71, 0x75, 0x65, 0x6e, 0x74, 0x69, 0x61, 0x6c, 0x5f, 0x31,
    0x32, 0x2f, 0x71, 0x75, 0x61, 0x6e, 0x74, 0x5f, 0x64, 0x65, 0x6e, 0x73,
    0x65, 0x5f, 0x32, 0x35, 0x2f, 0x4c, 0x61, 0x73, 0x74, 0x56, 0x61, 0x6c,
    0x75, 0x65, 0x51, 0x75, 0x61, 0x6e, 0x74, 0x2f, 0x46, 0x61, 0x6b, 0x65,
    0x51, 0x75, 0x61, 0x6e, 0x74, 0x57, 0x69, 0x74, 0x68, 0x4d, 0x69, 0x6e,
    0x4d, 0x61, 0x78, 0x56, 0x61, 0x72, 0x73, 0x00, 0x68, 0xe1, 0xff, 0xff,
    0x08, 0x00, 0x00, 0x00, 0x0c, 0x00, 0x00, 0x00, 0x01, 0x00, 0x00, 0x00,
    0x15, 0x3f, 0xb9, 0x3c, 0x01, 0x00, 0x00, 0x00, 0x00, 0x00, 0x00, 0x00,
    0x00, 0x00, 0x00, 0x00, 0x00, 0x00, 0x00, 0x00, 0x6a, 0xeb, 0xff, 0xff,
    0x00, 0x00, 0x00, 0x08, 0x04, 0x00, 0x00, 0x00, 0x24, 0x00, 0x00, 0x00,
    0x18, 0x00, 0x00, 0x00, 0x0c, 0x00, 0x00, 0x00, 0x00, 0x00, 0x06, 0x00,
    0x08, 0x00, 0x07, 0x00, 0x06, 0x00, 0x00, 0x00, 0x00, 0x00, 0x00, 0x01,
    0x01, 0x00, 0x00, 0x00, 0x0b, 0x00, 0x00, 0x00, 0x03, 0x00, 0x00, 0x00,
    0x09, 0x00, 0x00, 0x00, 0x0a, 0x00, 0x00, 0x00, 0x04, 0x00, 0x00, 0x00,
    0x28, 0xe9, 0xff, 0xff, 0x09, 0x00, 0x00, 0x00, 0x00, 0x00, 0x00, 0x09,
    0x04, 0x00, 0x00, 0x00, 0x1c, 0xe9, 0xff, 0xff, 0x00, 0x00, 0x00, 0x09,
    0x14, 0x00, 0x00, 0x00, 0x0c, 0x00, 0x00, 0x00, 0x18, 0x00, 0x00, 0x00,
    0x90, 0x00, 0x00, 0x00, 0x80, 0x00, 0x00, 0x00, 0x02, 0x00, 0x00, 0x00,
    0x01, 0x00, 0x00, 0x00, 0x10, 0x00, 0x00, 0x00, 0x6a, 0x00, 0x00, 0x00,
    0x73, 0x65, 0x71, 0x75, 0x65, 0x6e, 0x74, 0x69, 0x61, 0x6c, 0x5f, 0x31,
    0x32, 0x2f, 0x71, 0x75, 0x61, 0x6e, 0x74, 0x5f, 0x64, 0x65, 0x6e, 0x73,
    0x65, 0x5f, 0x32, 0x34, 0x2f, 0x4d, 0x61, 0x74, 0x4d, 0x75, 0x6c, 0x3b,
    0x73, 0x65, 0x71, 0x75, 0x65, 0x6e, 0x74, 0x69, 0x61, 0x6c, 0x5f, 0x31,
    0x32, 0x2f, 0x71, 0x75, 0x61, 0x6e, 0x74, 0x5f, 0x64, 0x65, 0x6e, 0x73,
    0x65, 0x5f, 0x32, 0x34, 0x2f, 0x52, 0x65, 0x6c, 0x75, 0x3b, 0x73, 0x65,
    0x71, 0x75, 0x65, 0x6e, 0x74, 0x69, 0x61, 0x6c, 0x5f, 0x31, 0x32, 0x2f,
    0x71, 0x75, 0x61, 0x6e, 0x74, 0x5f, 0x64, 0x65, 0x6e, 0x73, 0x65, 0x5f,
    0x32, 0x34, 0x2f, 0x42, 0x69, 0x61, 0x73, 0x41, 0x64, 0x64, 0x00, 0x00,
    0x02, 0x00, 0x00, 0x00, 0xff, 0xff, 0xff, 0xff, 0x10, 0x00, 0x00, 0x00,
    0x80, 0xe2, 0xff, 0xff, 0x08, 0x00, 0x00, 0x00, 0x0c, 0x00, 0x00, 0x00,
    0x01, 0x00, 0x00, 0x00, 0xc9, 0x2d, 0x9c, 0x3d, 0x01, 0x00, 0x00, 0x00,
    0x80, 0xff, 0xff, 0xff, 0xff, 0xff, 0xff, 0xff, 0x00, 0x00, 0x00, 0x00,
    0xfe, 0xe0, 0xff, 0xff, 0x04, 0x00, 0x00, 0x00, 0x00, 0x12, 0x00, 0x00,
    0x04, 0x02, 0xfe, 0x03, 0x08, 0x05, 0xfa, 0xff, 0x03, 0x1c, 0xff, 0x0a,
    0x1d, 0x05, 0x00, 0xf1, 0x02, 0xf2, 0x13, 0x04, 0xfd, 0xff, 0x06, 0x04,
    0x13, 0x0e, 0x11, 0x09, 0xf9, 0x06, 0x03, 0xdf, 0x16, 0x03, 0x03, 0xfe,
    0x02, 0x15, 0xff, 0xfc, 0x0c, 0xfa, 0xfe, 0x04, 0xf7, 0x13, 0xfd, 0xf9,
    0xfc, 0x12, 0x07, 0x0a, 0x10, 0x10, 0x0d, 0xf5, 0xfe, 0xf8, 0xff, 0x06,
    0x08, 0x0a, 0x04, 0xeb, 0x04, 0x06, 0x01, 0x0a, 0x0f, 0x04, 0xde, 0x01,
    0x0f, 0xf6, 0xfe, 0xd7, 0xef, 0x05, 0x01, 0x0f, 0xfb, 0x06, 0xf5, 0xff,
    0x06, 0x0f, 0xf6, 0x10, 0xfa, 0xec, 0xfe, 0xf7, 0x0e, 0x09, 0x01, 0x00,
    0xfa, 0xf8, 0x04, 0xdc, 0x05, 0x04, 0x00, 0x01, 0xf9, 0x0d, 0xfe, 0x08,
    0x14, 0x00, 0xfd, 0xff, 0xfe, 0xf9, 0xfa, 0x01, 0x01, 0x01, 0x01, 0x0a,
    0x04, 0x05, 0xea, 0x0b, 0xff, 0xd9, 0xf8, 0xf7, 0xf8, 0x09, 0xfe, 0x07,
    0xef, 0xfb, 0x08, 0x03, 0xef, 0x0c, 0x01, 0x08, 0x14, 0x04, 0xfd, 0xf8,
    0x27, 0x28, 0x05, 0xf2, 0xf5, 0x0b, 0xff, 0xf1, 0x02, 0xfa, 0x04, 0x09,
    0x03, 0x07, 0x10, 0x03, 0x0c, 0x06, 0x01, 0x0b, 0xdd, 0xf2, 0x00, 0x02,
    0x14, 0x08, 0x01, 0xfc, 0xfa, 0x08, 0x01, 0xf9, 0xf6, 0x01, 0xef, 0x10,
    0x05, 0xe8, 0xe8, 0x06, 0x09, 0xf1, 0xfd, 0xfe, 0xed, 0x03, 0x08, 0x04,
    0xfe, 0xf5, 0x01, 0xf5, 0x05, 0x06, 0x03, 0x03, 0x10, 0x0c, 0xff, 0x05,
    0xff, 0x09, 0x02, 0xfd, 0x04, 0xfb, 0xfa, 0x09, 0xf5, 0x0a, 0x08, 0xfd,
    0xf4, 0xfd, 0xf6, 0x10, 0x0a, 0xe8, 0xf0, 0x12, 0x0c, 0xf8, 0x01, 0x02,
    0xf8, 0x04, 0x02, 0x04, 0xfc, 0xfa, 0x02, 0x02, 0x07, 0x11, 0xff, 0x13,
    0x2d, 0x02, 0x0b, 0xf3, 0xfd, 0xe6, 0x20, 0x11, 0x0d, 0x22, 0xff, 0x22,
    0x02, 0x02, 0xf9, 0x09, 0x0a, 0x03, 0x03, 0x05, 0xbb, 0x17, 0xff, 0x01,
    0x0c, 0x05, 0x00, 0xf2, 0x13, 0x07, 0xfe, 0xfe, 0xdf, 0xe7, 0x01, 0x09,
    0x0e, 0xb7, 0x16, 0xf3, 0x06, 0x0f, 0x05, 0xf4, 0xb4, 0x09, 0x08, 0x02,
    0xf8, 0xf6, 0xfd, 0xd3, 0x0d, 0x04, 0xef, 0x00, 0x00, 0x07, 0xfe, 0x03,
    0xe9, 0x00, 0xfc, 0x05, 0xff, 0xf2, 0x07, 0x01, 0x01, 0x0c, 0x05, 0xfd,
    0xf6, 0xf9, 0xd7, 0xf5, 0x11, 0xe1, 0xed, 0xec, 0x0b, 0xfd, 0x03, 0x1a,
    0x21, 0x0c, 0x00, 0xff, 0xfa, 0x04, 0x03, 0x09, 0x09, 0x02, 0x03, 0x18,
    0xfd, 0xf9, 0x06, 0x08, 0xfe, 0x01, 0x09, 0x21, 0x12, 0x16, 0xff, 0x11,
    0x04, 0xf8, 0xf8, 0x19, 0xfd, 0xfd, 0xfe, 0x22, 0x10, 0x00, 0x05, 0x03,
    0x03, 0x07, 0x01, 0x03, 0xf1, 0x00, 0xff, 0x07, 0xf6, 0xef, 0xf8, 0x02,
    0xfe, 0xfb, 0xfb, 0x19, 0x07, 0x15, 0x00, 0x0b, 0xf5, 0xfd, 0xfb, 0x0a,
    0x01, 0x0d, 0xfe, 0xfa, 0xfd, 0x04, 0xf7, 0x00, 0x12, 0x10, 0x03, 0xfb,
    0xeb, 0x06, 0xff, 0x03, 0x0a, 0x07, 0x07, 0x0a, 0x03, 0x00, 0x01, 0xf9,
    0xec, 0xf4, 0xf8, 0xfc, 0xff, 0x15, 0x15, 0x1a, 0x0c, 0x04, 0xff, 0xf7,
    0x0e, 0x06, 0xf9, 0xff, 0x14, 0x1b, 0xfd, 0xff, 0xff, 0x0e, 0x00, 0x11,
    0x07, 0x02, 0x09, 0x15, 0x0b, 0x00, 0x03, 0xf6, 0xf8, 0xf6, 0xfb, 0xda,
    0x0a, 0xff, 0x07, 0x08, 0x01, 0x04, 0x02, 0xf8, 0xe9, 0x03, 0xe9, 0x02,
    0x05, 0x00, 0xfe, 0xf6, 0xfb, 0x00, 0x02, 0xe4, 0x00, 0xec, 0xf8, 0x02,
    0x00, 0xe0, 0x01, 0xe2, 0xfe, 0xe6, 0xf9, 0xf3, 0xd9, 0xf9, 0xfa, 0x00,
    0x04, 0x13, 0xff, 0xfa, 0x02, 0x01, 0xff, 0xfe, 0x1a, 0xf8, 0xfd, 0x02,
    0xf8, 0x04, 0xfd, 0xf7, 0xff, 0x08, 0x06, 0x01, 0x0c, 0x07, 0x06, 0x05,
    0xfe, 0xfe, 0x0c, 0x02, 0x02, 0xf7, 0x1c, 0x0d, 0xf9, 0x39, 0xfe, 0x02,
    0x0d, 0x14, 0x03, 0x01, 0xe1, 0x16, 0xff, 0x01, 0x3c, 0x1c, 0xfd, 0xfe,
    0x42, 0x21, 0xe6, 0xfb, 0xff, 0x17, 0x0b, 0x0e, 0x0a, 0x19, 0x06, 0x12,
    0x17, 0x01, 0x57, 0xf8, 0xfc, 0x0d, 0xff, 0xff, 0xf5, 0x04, 0xff, 0xff,
    0x04, 0x09, 0xff, 0xfa, 0x08, 0x02, 0xfd, 0xf4, 0x1a, 0x1b, 0xf9, 0x02,
    0x07, 0x15, 0x03, 0xf5, 0xff, 0x06, 0x00, 0x07, 0x1b, 0x0b, 0x16, 0xff,
    0x03, 0x0a, 0xff, 0xcf, 0xfb, 0x03, 0xe0, 0x01, 0xfd, 0x27, 0xfd, 0xf8,
    0xf8, 0x06, 0xff, 0x06, 0x15, 0xf0, 0x13, 0x0e, 0x03, 0xf8, 0x03, 0xfe,
    0xf0, 0xfd, 0xf7, 0xfb, 0xf6, 0xd5, 0x0a, 0xe9, 0xf8, 0x0b, 0xfe, 0xeb,
    0xee, 0x0b, 0xea, 0x00, 0x13, 0xf6, 0xff, 0xf8, 0xf0, 0x05, 0x02, 0xf1,
    0x0b, 0x08, 0x08, 0xfb, 0x0e, 0xfb, 0x15, 0xdb, 0xec, 0xe7, 0x0f, 0xdc,
    0x06, 0x12, 0x10, 0xe5, 0xf9, 0x00, 0x03, 0xe9, 0x12, 0x06, 0x09, 0x03,
    0x01, 0xfc, 0x01, 0x06, 0xf5, 0xfd, 0x01, 0x17, 0xf6, 0x01, 0xf8, 0xfb,
    0x01, 0x08, 0x02, 0x15, 0xff, 0x12, 0xf9, 0xfd, 0x1c, 0xfd, 0x04, 0xf6,
    0x08, 0x21, 0xfe, 0x11, 0x05, 0x06, 0xfd, 0x03, 0x14, 0xeb, 0xff, 0x01,
    0xfe, 0x05, 0xfd, 0x0e, 0x12, 0x18, 0x02, 0x04, 0x03, 0x08, 0x04, 0x00,
    0x03, 0x00, 0xfe, 0x09, 0x03, 0xfe, 0x1b, 0x0f, 0xe0, 0x16, 0x03, 0x19,
    0x01, 0xe3, 0x07, 0xfe, 0x35, 0xc9, 0xfd, 0x07, 0x01, 0x03, 0x00, 0x05,
    0x04, 0xe3, 0x0e, 0xeb, 0x06, 0xe3, 0x18, 0x05, 0xfe, 0x06, 0x0b, 0xfd,
    0x07, 0x12, 0x16, 0x03, 0xf7, 0x01, 0xff, 0x03, 0x2a, 0x03, 0x0a, 0xfe,
    0xff, 0x08, 0x03, 0x0e, 0x02, 0xfe, 0x00, 0xf8, 0x04, 0xf4, 0x11, 0xff,
    0xfc, 0x11, 0x02, 0xff, 0x04, 0x06, 0x0a, 0xf4, 0x0f, 0x0a, 0x01, 0x01,
    0x00, 0x2e, 0x03, 0x05, 0x04, 0x04, 0x06, 0xff, 0x0c, 0xf2, 0x03, 0xfe,
    0xf3, 0x02, 0xff, 0x12, 0x06, 0x0e, 0x0d, 0x02, 0xfa, 0x08, 0xf8, 0x07,
    0x0d, 0x00, 0x1e, 0x02, 0x09, 0x14, 0x1f, 0x08, 0x02, 0x14, 0xff, 0x01,
    0x11, 0x18, 0x00, 0x03, 0x54, 0xed, 0x02, 0x05, 0xef, 0x0c, 0xfd, 0x00,
    0xd4, 0xee, 0x06, 0x0b, 0x05, 0x2e, 0x04, 0x02, 0xf5, 0xfe, 0x0f, 0xfd,
    0x0d, 0x0c, 0xfc, 0xfd, 0xfb, 0xed, 0x03, 0xfd, 0x0c, 0xf0, 0x0c, 0xfe,
    0xfa, 0x0a, 0x03, 0x11, 0x1f, 0xfc, 0x00, 0x0c, 0x14, 0x09, 0xfb, 0xff,
    0xf9, 0x12, 0xee, 0xfe, 0x00, 0x0b, 0xed, 0xee, 0x12, 0x04, 0xf9, 0x01,
    0x01, 0xfc, 0xfe, 0x01, 0xfb, 0xff, 0xfe, 0xfd, 0x00, 0x04, 0x03, 0xfc,
    0x01, 0x00, 0xff, 0x01, 0xff, 0xfd, 0xfc, 0x02, 0xfe, 0x01, 0xfc, 0xfe,
    0xff, 0xfc, 0x03, 0xfc, 0x01, 0x00, 0xff, 0x01, 0xfd, 0xfc, 0x01, 0x03,
    0xfd, 0x02, 0xfd, 0xfe, 0x00, 0x02, 0x02, 0x01, 0xfb, 0xff, 0x01, 0x00,
    0xfc, 0x01, 0xfe, 0x01, 0x00, 0x02, 0x02, 0x00, 0x00, 0x00, 0x02, 0x02,
    0x01, 0xff, 0x02, 0x00, 0xfc, 0xfc, 0xfe, 0x01, 0xfd, 0x00, 0xfe, 0xff,
    0xfd, 0xfe, 0xff, 0xff, 0xff, 0xfb, 0x03, 0x01, 0xfd, 0xfe, 0x01, 0xfe,
    0xfe, 0xfd, 0xff, 0x03, 0xfd, 0xfd, 0x00, 0xfe, 0xfc, 0xfc, 0xfd, 0xff,
    0x02, 0x00, 0xff, 0x01, 0xfe, 0xff, 0x01, 0x01, 0xfd, 0xfd, 0xfe, 0x01,
    0xfc, 0x00, 0xfd, 0xfa, 0xfc, 0xfb, 0x00, 0x01, 0x03, 0xfd, 0xfd, 0xfe,
    0x01, 0xfd, 0xfe, 0x03, 0x01, 0xfe, 0x01, 0xfe, 0x01, 0xfe, 0xfd, 0xff,
    0xfd, 0xfe, 0xfd, 0x00, 0x01, 0xfe, 0x02, 0x01, 0xfc, 0xff, 0xff, 0xfe,
    0x00, 0x00, 0xfd, 0x00, 0x01, 0xfd, 0x02, 0xfe, 0x02, 0xfd, 0x01, 0xfe,
    0xfd, 0x01, 0x00, 0x01, 0x00, 0xff, 0x02, 0xfd, 0x01, 0xfd, 0xfd, 0xff,
    0x01, 0xfb, 0xfd, 0x02, 0xfe, 0x00, 0x02, 0x02, 0xfb, 0xfd, 0xfd, 0xff,
    0xff, 0x00, 0x00, 0x01, 0x03, 0x01, 0x00, 0x02, 0xfe, 0xfc, 0x02, 0xfd,
    0x02, 0xff, 0x00, 0xff, 0xfd, 0xfd, 0x00, 0xfd, 0xff, 0xfd, 0x02, 0xfe,
    0x01, 0xfe, 0x02, 0xfc, 0xfd, 0xfc, 0xfd, 0xfd, 0xfd, 0xfe, 0x00, 0x02,
    0xfc, 0x01, 0x01, 0x01, 0xfe, 0x00, 0xfd, 0xff, 0x02, 0xfc, 0x01, 0x01,
    0xfb, 0xfc, 0xfe, 0x01, 0xfc, 0xfd, 0xfe, 0xfb, 0x02, 0x00, 0x01, 0x02,
    0xfe, 0x00, 0xfe, 0xff, 0xfd, 0x00, 0xfd, 0xfd, 0xfd, 0xff, 0x02, 0x00,
    0xfd, 0xff, 0xff, 0xfe, 0xfb, 0x00, 0xfe, 0xfd, 0xfd, 0x01, 0xfd, 0x01,
    0x01, 0x01, 0x03, 0x01, 0xfc, 0x00, 0xfd, 0x00, 0x02, 0xff, 0xfd, 0xfd,
    0xff, 0xfd, 0xfe, 0xff, 0xfc, 0x00, 0x01, 0xfd, 0x01, 0x01, 0xfe, 0x00,
    0xfc, 0x07, 0xfd, 0x01, 0x05, 0x01, 0xf6, 0x00, 0x07, 0xeb, 0x02, 0x05,
    0x0f, 0xfe, 0x00, 0xec, 0xf6, 0x08, 0xf9, 0xfa, 0xfd, 0x07, 0xfc, 0xf6,
    0x01, 0x00, 0x28, 0x03, 0xfe, 0x11, 0x0e, 0x08, 0xeb, 0xfb, 0xff, 0xf9,
    0x0e, 0xff, 0x09, 0x01, 0xed, 0xe0, 0x02, 0x0d, 0xfd, 0xf3, 0xfe, 0x07,
    0xf7, 0x02, 0xd6, 0xcf, 0xf8, 0x08, 0x04, 0xf6, 0xfc, 0x07, 0xef, 0x0c,
    0x08, 0xfe, 0xf6, 0xe2, 0x03, 0xff, 0x00, 0x1b, 0x0e, 0xfe, 0x0e, 0x02,
    0xfe, 0x02, 0x00, 0x10, 0xfa, 0x00, 0x02, 0x0e, 0x03, 0x05, 0xfc, 0x04,
    0xfb, 0xe5, 0xe9, 0xff, 0x02, 0x22, 0x06, 0xf5, 0xec, 0x06, 0xff, 0x09,
    0x02, 0x0c, 0x00, 0x04, 0x02, 0x01, 0xf6, 0x00, 0x09, 0xfc, 0xfe, 0x00,
    0x03, 0xfe, 0x03, 0x00, 0x00, 0x04, 0x00, 0xfc, 0x06, 0x00, 0xfc, 0x03,
    0x03, 0xff, 0x1b, 0xfa, 0xff, 0x09, 0x0a, 0xf1, 0xc8, 0x01, 0xfd, 0x0d,
    0x00, 0x06, 0x08, 0x00, 0x1a, 0xbf, 0x00, 0x01, 0xb8, 0xd0, 0xfd, 0xfb,
    0xe8, 0xea, 0xcb, 0xcf, 0xf8, 0xf9, 0x03, 0x03, 0xe1, 0xf9, 0xde, 0xf9,
    0xf8, 0x05, 0xf0, 0x09, 0x02, 0xf8, 0x02, 0x0f, 0x15, 0xf8, 0x01, 0xfe,
    0x0c, 0x08, 0xfe, 0x02, 0xe8, 0x06, 0xff, 0xf6, 0xec, 0xf6, 0xea, 0x06,
    0xff, 0x00, 0x01, 0x08, 0x01, 0xfe, 0xe9, 0x0d, 0xf9, 0x0d, 0xf6, 0x03,
    0x05, 0x13, 0x03, 0x08, 0x00, 0x02, 0x01, 0xfd, 0xea, 0xfd, 0x00, 0x03,
    0xf8, 0x00, 0xfd, 0x0e, 0x0b, 0x03, 0xfe, 0xfe, 0x00, 0x00, 0xfd, 0x01,
    0x13, 0xfe, 0x11, 0x00, 0x07, 0x0d, 0x0f, 0xfa, 0x13, 0x18, 0x02, 0x08,
    0x04, 0xf6, 0x05, 0x01, 0x2c, 0xb7, 0x02, 0x02, 0xaf, 0xff, 0xfd, 0x23,
    0x89, 0xd5, 0x0c, 0x03, 0xfa, 0x07, 0xee, 0x08, 0x04, 0xf3, 0x08, 0xf9,
    0x03, 0x02, 0xed, 0x0c, 0x05, 0xf9, 0xfd, 0xfd, 0xfc, 0x08, 0xfa, 0x00,
    0x04, 0x06, 0x02, 0x01, 0x00, 0x09, 0x03, 0xf3, 0xe7, 0xf1, 0x16, 0x07,
    0x03, 0x04, 0x13, 0x01, 0x03, 0xf4, 0x06, 0xf4, 0xfb, 0x07, 0x07, 0x00,
    0x09, 0x0b, 0xfe, 0x35, 0x05, 0x00, 0x27, 0xfe, 0x05, 0xd0, 0x01, 0x0c,
    0xf6, 0xfc, 0xff, 0x27, 0xed, 0x0b, 0xf0, 0xeb, 0x02, 0xfe, 0xff, 0x0f,
    0xf9, 0x08, 0x0a, 0x08, 0x05, 0x23, 0x05, 0x02, 0xfd, 0xfb, 0xfd, 0x11,
    0xff, 0xf4, 0x31, 0xfd, 0x04, 0xfe, 0xff, 0x1d, 0x0d, 0x00, 0x03, 0xf6,
    0xf9, 0xfa, 0xf7, 0xf5, 0xf3, 0x08, 0xde, 0x03, 0x05, 0x0e, 0x06, 0x05,
    0xfa, 0x0a, 0x01, 0x0c, 0xfe, 0x07, 0xfd, 0xff, 0xfb, 0xfc, 0x18, 0xfe,
    0xfd, 0x0b, 0xfd, 0x24, 0x0e, 0x02, 0x01, 0x07, 0x15, 0x0b, 0x0a, 0x03,
    0xfb, 0x0b, 0xfa, 0x07, 0x05, 0xec, 0x08, 0x04, 0x0a, 0x0b, 0x09, 0x06,
    0xff, 0x1d, 0xff, 0x3e, 0x04, 0x03, 0x14, 0x03, 0x1f, 0xe7, 0xfe, 0x04,
    0xfb, 0xfb, 0x00, 0x02, 0xe8, 0x12, 0xee, 0xf4, 0x0a, 0xff, 0xf0, 0x00,
    0x0f, 0x06, 0x32, 0x00, 0x01, 0x4d, 0x24, 0xf6, 0x15, 0xef, 0xfe, 0xf0,
    0x12, 0x1c, 0x0c, 0x02, 0xc4, 0x11, 0x02, 0x0d, 0xeb, 0xef, 0x01, 0xfd,
    0xfb, 0x1b, 0xe4, 0x04, 0x16, 0x32, 0xef, 0x03, 0xfe, 0xfb, 0xd8, 0x07,
    0x06, 0x05, 0xe7, 0x04, 0x00, 0xfd, 0xfe, 0x05, 0x11, 0xf8, 0x19, 0x01,
    0xf9, 0x03, 0xfe, 0x1a, 0xfd, 0xff, 0x03, 0x24, 0xf5, 0x0b, 0xea, 0x04,
    0xf6, 0x2f, 0xfe, 0x1b, 0x09, 0x06, 0xf7, 0x13, 0x2d, 0xf5, 0xf9, 0x03,
    0x13, 0x08, 0x01, 0x06, 0xff, 0xfd, 0x01, 0x03, 0x0b, 0xf5, 0xfe, 0x01,
    0xfa, 0xfd, 0xfd, 0x09, 0xea, 0x08, 0xf8, 0xff, 0x0a, 0xfc, 0xf9, 0x05,
    0x08, 0x04, 0x0b, 0x01, 0x00, 0x0c, 0x0c, 0xf8, 0xf5, 0xf7, 0xfd, 0x02,
    0xfb, 0xe5, 0x01, 0xfe, 0xfd, 0xff, 0x02, 0xff, 0xe8, 0xe8, 0xff, 0x0a,
    0x00, 0x03, 0xef, 0x06, 0x02, 0xe9, 0xfa, 0x01, 0x08, 0xfd, 0xf7, 0xf7,
    0x00, 0x02, 0xe4, 0x08, 0xff, 0xf9, 0xff, 0xff, 0x14, 0x03, 0x01, 0xfe,
    0xfd, 0x01, 0x03, 0x08, 0x02, 0x04, 0x00, 0x0c, 0xd4, 0xf3, 0x01, 0x01,
    0xfa, 0x13, 0x0b, 0x04, 0x01, 0xea, 0xef, 0xf8, 0x12, 0xff, 0xf2, 0xff,
    0x09, 0xf5, 0x01, 0x34, 0x05, 0x02, 0x0f, 0x01, 0xf7, 0xf2, 0x02, 0x0d,
    0x07, 0xff, 0x00, 0xf6, 0xf5, 0x02, 0xfb, 0x0e, 0xfd, 0x03, 0x00, 0x08,
    0x10, 0x04, 0x0b, 0x06, 0xfc, 0x13, 0xf7, 0x25, 0x14, 0x01, 0xff, 0xf7,
    0xee, 0xef, 0xf9, 0x03, 0x06, 0x1d, 0xff, 0xf7, 0x1c, 0x04, 0xfe, 0xfc,
    0x12, 0x02, 0x0a, 0x15, 0xfe, 0xfa, 0xff, 0xfb, 0x17, 0x05, 0x03, 0x15,
    0xfd, 0xff, 0x02, 0x0a, 0x03, 0x09, 0x02, 0xfd, 0x00, 0x0c, 0x02, 0x03,
    0x0f, 0xf8, 0x03, 0x03, 0xff, 0x05, 0x02, 0x06, 0x0e, 0x19, 0xf8, 0xfa,
    0x0a, 0x19, 0x0a, 0x02, 0xfd, 0xfa, 0x03, 0x0b, 0xff, 0x08, 0x0c, 0x00,
    0x01, 0xd9, 0x01, 0xf9, 0x07, 0x06, 0x04, 0x01, 0xe1, 0x1a, 0x01, 0x0a,
    0x0d, 0x08, 0x02, 0xf4, 0xf8, 0xe0, 0x0e, 0x11, 0xfa, 0x02, 0x0c, 0x0a,
    0x09, 0x05, 0xe9, 0x08, 0x00, 0xdd, 0xd2, 0xf5, 0x15, 0xeb, 0x00, 0x02,
    0xfa, 0xf3, 0x02, 0x03, 0xe8, 0x0f, 0xff, 0x03, 0x06, 0xf0, 0xff, 0xf3,
    0xfd, 0x07, 0xdf, 0xee, 0xdc, 0xfe, 0xfd, 0x08, 0x0b, 0x0f, 0x06, 0x3a,
    0x00, 0xf8, 0xdf, 0x01, 0x0c, 0x0c, 0x02, 0x0e, 0xe6, 0xfa, 0x09, 0xfd,
    0x0d, 0xff, 0xfe, 0x06, 0x01, 0x07, 0xfe, 0x08, 0xfc, 0x1e, 0xf6, 0x08,
    0x08, 0xfc, 0xf8, 0x02, 0x05, 0x1c, 0x06, 0x1a, 0x03, 0x00, 0x1b, 0x03,
    0xee, 0xe4, 0x01, 0xf6, 0x12, 0x12, 0x05, 0x02, 0xfb, 0x19, 0xfe, 0x02,
    0x10, 0x0e, 0x02, 0xfc, 0x07, 0xf6, 0xf4, 0x0f, 0x0a, 0x0d, 0x23, 0x03,
    0xfa, 0x01, 0xd6, 0xff, 0x0e, 0xe5, 0xe6, 0xfa, 0x1b, 0xf1, 0xff, 0x08,
    0xfd, 0xfa, 0x02, 0x02, 0x02, 0xee, 0xfd, 0x03, 0xf7, 0xfa, 0xfd, 0xf9,
    0xfc, 0xf8, 0xfc, 0xea, 0xf8, 0xc9, 0x11, 0x0f, 0x16, 0x13, 0x08, 0x2f,
    0xed, 0x01, 0xeb, 0x02, 0x05, 0x13, 0x03, 0xfd, 0xf7, 0x09, 0xfb, 0xfe,
    0x05, 0x05, 0xff, 0xf7, 0xfb, 0x03, 0xfe, 0x00, 0xe1, 0xe8, 0x12, 0x00,
    0x0d, 0xf2, 0x0c, 0x05, 0x01, 0xf6, 0x1f, 0x08, 0xe5, 0xf9, 0x0c, 0x04,
    0x0f, 0x02, 0x01, 0xf1, 0x09, 0x03, 0xee, 0x02, 0x05, 0x18, 0x00, 0xff,
    0x06, 0x04, 0xfd, 0x05, 0x01, 0x00, 0x10, 0x0e, 0x06, 0x00, 0x06, 0x0e,
    0x0f, 0x04, 0x05, 0x04, 0xff, 0xfc, 0xfd, 0xf2, 0x0e, 0x04, 0x02, 0x0a,
    0x0e, 0x15, 0xec, 0x02, 0x07, 0xfd, 0x02, 0xec, 0xfe, 0x0e, 0x02, 0x04,
    0x05, 0x09, 0xfd, 0x03, 0x12, 0x0f, 0x12, 0x0b, 0xfb, 0x07, 0xfe, 0x10,
    0x06, 0xfe, 0x01, 0x02, 0xee, 0x00, 0x03, 0x05, 0x0c, 0xfa, 0x4b, 0xfe,
    0xed, 0xfb, 0x04, 0x53, 0x1c, 0xf4, 0x03, 0x11, 0x08, 0x00, 0x05, 0xf2,
    0xf5, 0x05, 0x00, 0x1a, 0x0e, 0x13, 0x00, 0x0e, 0x06, 0xf5, 0x02, 0x03,
    0x07, 0x1e, 0x01, 0x01, 0x03, 0x06, 0xfe, 0x01, 0x11, 0xf6, 0x02, 0x01,
    0x06, 0x04, 0x00, 0xfd, 0xfa, 0x08, 0xfd, 0x06, 0x05, 0x0a, 0xfc, 0xfb,
    0xf7, 0xfd, 0xff, 0xf1, 0x08, 0x08, 0x16, 0xf8, 0x05, 0x07, 0xff, 0xfe,
    0x05, 0x1d, 0xf8, 0x02, 0x2a, 0xd9, 0x00, 0xfc, 0xf0, 0x02, 0xff, 0x14,
    0x00, 0x00, 0xe6, 0x05, 0xf8, 0x0f, 0x04, 0x09, 0xf1, 0x02, 0xed, 0xfe,
    0x0d, 0x03, 0xfc, 0xff, 0xf3, 0xf8, 0x02, 0xf8, 0x22, 0xeb, 0x13, 0x00,
    0xeb, 0x0b, 0x03, 0x1a, 0xfa, 0xff, 0x03, 0x0b, 0xfa, 0xf6, 0xf0, 0x07,
    0xe9, 0x04, 0xdf, 0x0e, 0x01, 0x15, 0xf1, 0xeb, 0x12, 0xfa, 0xef, 0xfd,
    0x0c, 0x18, 0x01, 0x03, 0xfd, 0x01, 0x00, 0x02, 0x02, 0xff, 0xfe, 0x05,
    0xe8, 0x05, 0xff, 0x04, 0xfa, 0x12, 0xfc, 0x0c, 0xf8, 0x02, 0xff, 0xf7,
    0xfa, 0xfc, 0x08, 0x02, 0xfd, 0x01, 0x1f, 0xff, 0xe7, 0x42, 0xfd, 0x00,
    0xf4, 0xe1, 0x01, 0x03, 0x3e, 0xf1, 0x03, 0xfe, 0x17, 0xeb, 0xfd, 0xf9,
    0xfd, 0xfd, 0xf8, 0xe2, 0xee, 0x02, 0xf8, 0xf8, 0xef, 0xff, 0x02, 0xfc,
    0x15, 0x04, 0x35, 0xfb, 0xfa, 0xed, 0xfd, 0xfd, 0x31, 0xf8, 0x09, 0x03,
    0xe8, 0x0e, 0x00, 0x0a, 0xd9, 0x02, 0x01, 0x09, 0xfd, 0x19, 0xed, 0x00,
    0xf3, 0x30, 0xff, 0xfd, 0xfd, 0xe8, 0xed, 0xee, 0x24, 0x03, 0xe2, 0x01,
    0xff, 0x06, 0xfe, 0xd5, 0x02, 0x04, 0xcf, 0x01, 0x05, 0x32, 0x01, 0xff,
    0x09, 0x08, 0x02, 0xfc, 0x08, 0x03, 0x1f, 0x0a, 0x03, 0x05, 0x05, 0xfc,
    0xfc, 0xfe, 0x05, 0xfc, 0x04, 0xf0, 0x07, 0xea, 0x0d, 0x01, 0x02, 0xed,
    0x12, 0x12, 0xe7, 0xfe, 0xfb, 0x0a, 0x00, 0xea, 0x07, 0x1c, 0xff, 0x0d,
    0x09, 0x08, 0xfa, 0x11, 0x14, 0x01, 0x16, 0xf4, 0x05, 0x01, 0x00, 0x0a,
    0x0f, 0xf4, 0xfd, 0xff, 0x0c, 0x06, 0xff, 0x02, 0x01, 0x07, 0xed, 0xfe,
    0x09, 0xfb, 0xff, 0xea, 0x0d, 0x09, 0xfe, 0x09, 0x0a, 0x05, 0x08, 0x03,
    0x06, 0x01, 0x09, 0x05, 0xf6, 0xff, 0x0b, 0xf3, 0x02, 0x07, 0x02, 0xfd,
    0xfc, 0x31, 0x00, 0xf5, 0x02, 0xfd, 0xee, 0xfd, 0x0b, 0x0b, 0xfd, 0xfc,
    0x16, 0xfd, 0xfd, 0x08, 0x13, 0x13, 0x06, 0xfa, 0x00, 0x04, 0x01, 0x00,
    0x02, 0x03, 0x10, 0xfe, 0x0b, 0x0c, 0x27, 0xf7, 0x16, 0x0b, 0x02, 0x09,
    0xfe, 0xff, 0xf9, 0xfd, 0x1c, 0xfa, 0xff, 0xff, 0x19, 0x14, 0xfc, 0xfd,
    0x13, 0xf8, 0x08, 0x14, 0xfe, 0xe9, 0x0e, 0x03, 0x0a, 0x09, 0x18, 0x0e,
    0xff, 0xf9, 0x0e, 0xff, 0xf7, 0x08, 0x03, 0x05, 0x09, 0x00, 0x05, 0x03,
    0x04, 0xfa, 0x01, 0x05, 0x03, 0xfb, 0x02, 0xf7, 0x0a, 0xfa, 0xfb, 0xfb,
    0xfb, 0xf7, 0xf6, 0xf9, 0xfc, 0x21, 0x09, 0x08, 0x0e, 0x14, 0x18, 0xfe,
    0x0b, 0x12, 0x00, 0x1f, 0xfe, 0xfd, 0x05, 0xff, 0x08, 0xee, 0x00, 0x02,
    0xe2, 0xf6, 0x01, 0x00, 0x02, 0xf7, 0xfa, 0xfe, 0xe5, 0xfd, 0xfb, 0x00,
    0x18, 0x04, 0x18, 0x01, 0xfa, 0x1a, 0x0d, 0x16, 0x1b, 0xff, 0x00, 0x0b,
    0x13, 0x2a, 0x04, 0x03, 0x23, 0xdd, 0x02, 0x05, 0x01, 0x22, 0x01, 0xff,
    0xec, 0xe5, 0xf9, 0x0c, 0x02, 0xe4, 0x02, 0x04, 0x07, 0x0b, 0x16, 0x0c,
    0xee, 0x05, 0xe7, 0x01, 0x00, 0xf0, 0x03, 0x03, 0xfb, 0xf8, 0x0c, 0xff,
    0xff, 0x00, 0x03, 0x14, 0x04, 0xfd, 0xfe, 0x0b, 0xe6, 0xfe, 0xfe, 0xfe,
    0xfa, 0xd2, 0xfa, 0x18, 0x04, 0xfa, 0xfa, 0xfd, 0xde, 0x08, 0xfa, 0x02,
    0x06, 0xfe, 0xff, 0xf7, 0x09, 0x03, 0xfa, 0x01, 0xff, 0x29, 0xfe, 0x06,
    0x01, 0xfa, 0xff, 0xf8, 0xfc, 0x05, 0xf2, 0xff, 0x01, 0x07, 0xfd, 0x03,
    0x0b, 0x00, 0xf1, 0x02, 0x04, 0xf9, 0x00, 0x00, 0x1c, 0x01, 0xff, 0x04,
    0x0b, 0x18, 0xeb, 0xfe, 0x08, 0x18, 0xfd, 0xf6, 0x05, 0x0b, 0x03, 0x04,
    0x01, 0x12, 0xfe, 0x18, 0x0c, 0x1d, 0xff, 0x0c, 0x12, 0x11, 0x02, 0x1b,
    0x02, 0xff, 0x03, 0x06, 0x0b, 0x02, 0x00, 0x04, 0x0d, 0xfe, 0xe9, 0x02,
    0x01, 0x0a, 0xfd, 0xda, 0x0b, 0x0a, 0x00, 0x08, 0xff, 0x06, 0x00, 0x09,
    0x05, 0x0c, 0x09, 0x19, 0x10, 0x09, 0xfa, 0x1c, 0x02, 0xf7, 0x03, 0x0e,
    0xfb, 0x05, 0xff, 0xfc, 0xfb, 0xfe, 0xfb, 0x03, 0xfa, 0x18, 0x00, 0xfe,
    0x1e, 0x01, 0x01, 0xfc, 0x0c, 0xfe, 0x10, 0x00, 0xfb, 0xff, 0xfc, 0xf9,
    0x0b, 0x00, 0x05, 0x03, 0x00, 0xf7, 0xfe, 0xf0, 0x2a, 0x0a, 0xfd, 0x04,
    0xf3, 0x00, 0xfd, 0x00, 0x2f, 0xf7, 0x02, 0xff, 0x0b, 0x1c, 0xff, 0xfd,
    0x0b, 0xf9, 0x16, 0x2e, 0x00, 0x01, 0xf9, 0xed, 0x04, 0x01, 0x14, 0x03,
    0xf9, 0xff, 0x0c, 0xf9, 0x03, 0x02, 0xff, 0xff, 0xe8, 0xf8, 0xfc, 0x03,
    0x05, 0x07, 0xfd, 0xfa, 0x10, 0x02, 0xfe, 0x0c, 0x09, 0xed, 0x02, 0x05,
    0xf9, 0xf0, 0xe8, 0x03, 0x08, 0x07, 0x09, 0x03, 0xff, 0x13, 0x10, 0x04,
    0xfa, 0x05, 0xfd, 0x0d, 0x03, 0x00, 0x01, 0xff, 0xe9, 0x03, 0xfe, 0x03,
    0xf6, 0x01, 0x01, 0x02, 0x0a, 0x03, 0xfa, 0xff, 0xfd, 0xfe, 0x0f, 0x02,
    0x12, 0x00, 0x08, 0x08, 0xfa, 0xf9, 0xfd, 0x09, 0x0b, 0xf9, 0xff, 0x0c,
    0x01, 0x01, 0x01, 0x02, 0x3e, 0xe3, 0xfe, 0x01, 0x0c, 0x04, 0x03, 0xfc,
    0xf9, 0xdf, 0x0c, 0xfa, 0xe9, 0xd9, 0x0e, 0xf8, 0xfe, 0x03, 0x1b, 0x14,
    0xf3, 0x0a, 0xe9, 0xfd, 0xfc, 0x09, 0x00, 0xfc, 0xf5, 0xfa, 0x02, 0xfe,
    0xf8, 0x05, 0x00, 0x05, 0x1c, 0x02, 0xfe, 0xf9, 0xfd, 0x09, 0xfd, 0x01,
    0xfc, 0xdc, 0xfc, 0x08, 0x00, 0xfd, 0x0a, 0x07, 0xe4, 0xf5, 0x06, 0xff,
    0x0a, 0xff, 0xfe, 0xfb, 0x01, 0xfd, 0x04, 0x02, 0xf8, 0xf7, 0xff, 0x09,
    0xdf, 0xfd, 0x00, 0x0c, 0x06, 0xef, 0x0e, 0x05, 0xfe, 0xfc, 0xfb, 0x05,
    0x00, 0x03, 0xf2, 0x09, 0x04, 0xfe, 0xf6, 0x02, 0xe8, 0xfe, 0x00, 0x19,
    0x06, 0xe3, 0x19, 0xfd, 0xfb, 0xfc, 0x02, 0x1a, 0x08, 0xd8, 0xfe, 0xfc,
    0xf8, 0xe6, 0xfd, 0xeb, 0xeb, 0xe4, 0xef, 0xfc, 0x09, 0x08, 0x07, 0xf1,
    0xf4, 0x0e, 0xfd, 0xff, 0x06, 0x01, 0x03, 0x06, 0xde, 0x0e, 0x02, 0xfd,
    0x03, 0x03, 0x02, 0xf4, 0xfd, 0x11, 0x03, 0xe7, 0x00, 0x0d, 0xf5, 0x04,
    0x0b, 0xf4, 0x02, 0xde, 0xfa, 0xf8, 0xfc, 0xf0, 0xf0, 0x0b, 0x00, 0x04,
    0xf6, 0x06, 0x00, 0x0b, 0xf0, 0xf0, 0x10, 0x02, 0xf4, 0x03, 0xff, 0x01,
    0xfe, 0xf8, 0x01, 0x06, 0x11, 0xf8, 0x18, 0xfb, 0xe2, 0xef, 0x05, 0x09,
    0xff, 0xfe, 0xfd, 0x0e, 0x00, 0x1d, 0xfa, 0x2e, 0xf6, 0x0a, 0x00, 0x0e,
    0x15, 0xf9, 0x0b, 0x03, 0x42, 0xbe, 0x02, 0x0c, 0xb4, 0xe1, 0xfd, 0x0c,
    0x81, 0xec, 0xd4, 0xf7, 0xf9, 0x15, 0xd7, 0x06, 0xd4, 0xe3, 0xf6, 0xc8,
    0x08, 0x09, 0x05, 0xfb, 0x06, 0x09, 0xfd, 0x00, 0xdf, 0xff, 0x03, 0x00,
    0xff, 0x09, 0xfd, 0x09, 0x1d, 0x06, 0xfe, 0xf7, 0x19, 0x03, 0x1b, 0x05,
    0xfe, 0xeb, 0xf6, 0xe7, 0x05, 0x10, 0x14, 0xff, 0xe7, 0xf7, 0x00, 0x02,
    0xfc, 0x11, 0x01, 0x09, 0xfe, 0xfd, 0x05, 0x00, 0x09, 0x05, 0x02, 0x01,
    0x06, 0xf1, 0x00, 0x02, 0x0a, 0xe9, 0xfc, 0xe9, 0x02, 0xf1, 0x05, 0x08,
    0x0b, 0x07, 0x10, 0x04, 0xf2, 0x0f, 0x1f, 0x01, 0x01, 0x28, 0x01, 0xfc,
    0x0f, 0xfe, 0x00, 0x01, 0x30, 0x0c, 0x01, 0x03, 0xdf, 0xfe, 0xff, 0xe6,
    0xb0, 0x11, 0x22, 0x10, 0x09, 0x2b, 0xd4, 0xf2, 0xf2, 0xe2, 0x06, 0xd7,
    0x16, 0xff, 0x33, 0xfb, 0x02, 0x17, 0x03, 0xfc, 0x15, 0x03, 0x07, 0xfd,
    0x0b, 0xfe, 0xfe, 0x06, 0xf3, 0x05, 0x03, 0xfe, 0x25, 0xfe, 0x08, 0x03,
    0x09, 0x2e, 0xfc, 0x06, 0x02, 0xe9, 0x01, 0xfa, 0x1e, 0xfd, 0x11, 0x03,
    0xff, 0x01, 0xff, 0xf9, 0x05, 0x08, 0x01, 0xfe, 0x0a, 0x0d, 0xff, 0xfe,
    0xfa, 0x08, 0x00, 0xff, 0x09, 0x04, 0xf4, 0x04, 0x08, 0x0a, 0x05, 0xfb,
    0xfc, 0xff, 0xf0, 0x03, 0x04, 0xed, 0x05, 0xe5, 0xec, 0xfd, 0x04, 0x18,
    0xfe, 0x01, 0xff, 0x02, 0x04, 0xfe, 0xfd, 0x09, 0x03, 0xf5, 0xfd, 0xf6,
    0xf4, 0x00, 0xf7, 0xe5, 0x01, 0x06, 0xff, 0x07, 0xff, 0xfa, 0xff, 0xfa,
    0x01, 0x09, 0x00, 0xf5, 0x12, 0xfc, 0xfe, 0x0e, 0x03, 0x01, 0x02, 0xff,
    0x05, 0x0f, 0x01, 0xff, 0xe9, 0x0c, 0x01, 0x10, 0xf6, 0x08, 0xed, 0x0c,
    0xff, 0x0e, 0x03, 0x1a, 0x0b, 0xfd, 0xf0, 0x15, 0x03, 0xff, 0xf9, 0x09,
    0x00, 0x04, 0xfd, 0x11, 0x01, 0x03, 0x04, 0xfd, 0x0f, 0xfd, 0x01, 0x02,
    0xf3, 0xff, 0x02, 0xfd, 0xf9, 0x00, 0xfc, 0x01, 0x06, 0x01, 0xfb, 0xf5,
    0x02, 0x01, 0x0f, 0x08, 0xff, 0x12, 0x0a, 0x07, 0xf1, 0xf5, 0xfe, 0xe2,
    0x16, 0xfe, 0x05, 0x02, 0xce, 0x3e, 0x03, 0x04, 0x21, 0xf7, 0xfe, 0x06,
    0x09, 0x0a, 0xfb, 0xea, 0x0c, 0x0e, 0x00, 0xfe, 0x15, 0x01, 0xf5, 0xf8,
    0x05, 0xfc, 0xf8, 0x03, 0x10, 0x16, 0xfd, 0xeb, 0xbb, 0x15, 0xee, 0x01,
    0x02, 0x09, 0xfe, 0xf1, 0x1c, 0x0e, 0xfd, 0xe3, 0x22, 0xe3, 0x2f, 0x0c,
    0x12, 0xe2, 0x1a, 0xeb, 0x03, 0xeb, 0x1a, 0x11, 0xc9, 0xd7, 0x18, 0x05,
    0x0f, 0xf4, 0xfd, 0xf3, 0x05, 0x04, 0xfe, 0xfe, 0x0a, 0xf6, 0x03, 0x05,
    0x0c, 0x04, 0xff, 0xf7, 0xeb, 0xf6, 0x10, 0x01, 0x0a, 0x02, 0x00, 0x04,
    0xf5, 0x05, 0xf3, 0xfc, 0x03, 0xf8, 0xf8, 0xf9, 0xf0, 0x13, 0x01, 0xff,
    0x08, 0x18, 0x03, 0xfe, 0x8d, 0x3c, 0xff, 0xfe, 0x38, 0x0f, 0xff, 0x0b,
    0x58, 0x2f, 0xf6, 0x0d, 0x22, 0x2a, 0xfd, 0x03, 0x05, 0x0b, 0xf7, 0xfc,
    0x17, 0xf8, 0x35, 0x02, 0x06, 0x0b, 0x02, 0xfc, 0xdb, 0xf9, 0xfb, 0x02,
    0x03, 0x08, 0xfd, 0xf9, 0x20, 0x02, 0x01, 0xeb, 0x24, 0x0a, 0xfe, 0x05,
    0x05, 0xeb, 0xf1, 0x02, 0x06, 0x2b, 0x15, 0x1f, 0xf6, 0xf0, 0x18, 0x02,
    0xff, 0x0a, 0xff, 0x19, 0xf9, 0xfd, 0x0d, 0xfd, 0xfd, 0xf2, 0x02, 0x02,
    0x0a, 0xfd, 0xfe, 0xf7, 0x0a, 0x0b, 0x00, 0x0f, 0x00, 0x00, 0xfc, 0xfa,
    0x15, 0xfb, 0x0b, 0x05, 0x01, 0x0b, 0x0d, 0x33, 0xec, 0x02, 0xfe, 0x05,
    0x04, 0xf8, 0xf2, 0x00, 0xf9, 0x05, 0x02, 0xf9, 0xfc, 0xec, 0x05, 0x0a,
    0x07, 0x07, 0xf8, 0xe7, 0xf9, 0x08, 0x07, 0x0e, 0x02, 0x00, 0xf9, 0xfe,
    0x07, 0x06, 0x01, 0x04, 0x07, 0xfe, 0x00, 0x10, 0x0b, 0xfd, 0x19, 0x00,
    0x04, 0x0e, 0xfe, 0x21, 0x04, 0x02, 0x00, 0xff, 0xfe, 0x06, 0x03, 0x01,
    0xfe, 0x03, 0x01, 0x01, 0x06, 0x2f, 0x01, 0x10, 0xf5, 0x04, 0x00, 0x03,
    0x06, 0xec, 0xfd, 0xf8, 0x00, 0x00, 0x00, 0xff, 0xf0, 0x0c, 0xfe, 0x04,
    0x0a, 0x01, 0x02, 0xf8, 0xfd, 0xf1, 0x0a, 0x08, 0xf9, 0xff, 0x03, 0xff,
    0x13, 0x09, 0x08, 0x09, 0xfb, 0xf4, 0xee, 0x06, 0xfd, 0xfa, 0x03, 0xfd,
    0x10, 0x14, 0xfc, 0x03, 0x0c, 0xed, 0x00, 0xfb, 0xdd, 0x0b, 0xfe, 0x10,
    0xd7, 0xec, 0xe4, 0xf4, 0x03, 0x08, 0x06, 0x13, 0xf8, 0x07, 0xf7, 0x08,
    0x0a, 0x07, 0xed, 0x03, 0x06, 0xfb, 0x00, 0x01, 0xf7, 0x07, 0xfd, 0xfe,
    0x00, 0x08, 0x01, 0xff, 0x11, 0x04, 0xff, 0xfc, 0xfd, 0xff, 0x19, 0x02,
    0x06, 0xe3, 0x16, 0xf7, 0xfe, 0x0b, 0xfe, 0xf6, 0xe3, 0xf1, 0xfb, 0x01,
    0xea, 0xf2, 0x03, 0xf4, 0x02, 0xfe, 0x01, 0x00, 0xe4, 0x16, 0xff, 0x01,
    0x14, 0x01, 0x03, 0x03, 0x09, 0x01, 0x06, 0x00, 0x08, 0x01, 0x0a, 0xfc,
    0xed, 0xfb, 0xf3, 0xf9, 0x03, 0x04, 0xf3, 0xdc, 0xe6, 0x10, 0x01, 0xf8,
    0xf3, 0xd0, 0xff, 0x03, 0xf4, 0x21, 0xff, 0xfc, 0x19, 0xe2, 0xfe, 0xf2,
    0xf9, 0x05, 0x17, 0xe8, 0xfd, 0x22, 0xe7, 0xdf, 0xed, 0xcf, 0xf9, 0xe9,
    0x09, 0xfe, 0x2d, 0x01, 0x02, 0x0e, 0x00, 0xfc, 0x1c, 0x05, 0x02, 0x00,
    0x01, 0x03, 0xfe, 0xfa, 0xdb, 0x03, 0xfd, 0x00, 0x24, 0x13, 0xfe, 0xff,
    0x0a, 0x25, 0x03, 0x05, 0xff, 0xfa, 0x0a, 0x07, 0x15, 0xf4, 0x0a, 0x02,
    0x07, 0xfb, 0x02, 0xfb, 0xf9, 0x01, 0xf1, 0x00, 0xf8, 0x00, 0xfe, 0xf4,
    0xf7, 0x06, 0xfe, 0x12, 0x18, 0xee, 0x0f, 0x11, 0xff, 0xf7, 0x07, 0x00,
    0xec, 0xff, 0xf3, 0xf2, 0x03, 0x01, 0x00, 0xfc, 0xf6, 0x03, 0xfe, 0xfc,
    0x01, 0xfc, 0x15, 0x02, 0xf6, 0xea, 0x02, 0x06, 0x04, 0x0a, 0x00, 0x08,
    0x11, 0xf9, 0x0c, 0x01, 0x01, 0xea, 0x08, 0xfa, 0xfb, 0x01, 0x0a, 0xe1,
    0x02, 0x01, 0x02, 0xfb, 0xfd, 0x04, 0xff, 0x15, 0xf1, 0xfd, 0x32, 0x00,
    0x05, 0x03, 0xfd, 0x34, 0xfe, 0xff, 0x02, 0xf7, 0x10, 0xf5, 0x06, 0x01,
    0x01, 0xe9, 0x02, 0xf4, 0x04, 0x05, 0x12, 0x00, 0xf0, 0x0d, 0x08, 0x00,
    0xf1, 0xfe, 0xfd, 0xfa, 0xf3, 0xfc, 0x08, 0x01, 0x00, 0x03, 0x00, 0xfc,
    0xf4, 0x03, 0x03, 0x1a, 0x09, 0xf5, 0x0a, 0x07, 0xfc, 0xfe, 0x16, 0x0f,
    0xd6, 0xff, 0xe2, 0x03, 0x06, 0x05, 0xf8, 0x14, 0x06, 0xfb, 0xff, 0x17,
    0x11, 0xf2, 0x08, 0x03, 0x05, 0x02, 0xfd, 0x01, 0xea, 0x10, 0x00, 0x06,
    0x04, 0x0d, 0x03, 0x0b, 0xf0, 0xfb, 0x08, 0x03, 0x03, 0xfa, 0xf6, 0x04,
    0x03, 0x05, 0xf6, 0x0b, 0x04, 0x07, 0x03, 0x04, 0x0b, 0x07, 0x09, 0x00,
    0x04, 0x00, 0xff, 0x06, 0xfc, 0x04, 0x03, 0x07, 0xfd, 0xfc, 0xff, 0xfd,
    0x05, 0xf8, 0xff, 0x05, 0x01, 0x11, 0xff, 0x06, 0xf2, 0xe3, 0x05, 0x00,
    0xfe, 0xfc, 0xfe, 0xf9, 0x04, 0x08, 0x02, 0xfd, 0x1f, 0x0d, 0x01, 0xff,
    0x02, 0x07, 0x01, 0xfc, 0xfc, 0xf7, 0xfe, 0xfb, 0x03, 0x01, 0x13, 0x04,
    0xf5, 0xfe, 0xf3, 0x0e, 0xf7, 0x01, 0x11, 0x02, 0x04, 0x1c, 0x02, 0xff,
    0xf9, 0xfc, 0xfb, 0x01, 0x12, 0x11, 0x03, 0xfb, 0x04, 0xf1, 0xff, 0xf0,
    0x10, 0x17, 0xe9, 0xec, 0x00, 0x1d, 0x07, 0x09, 0x06, 0x07, 0x02, 0x20,
    0x00, 0x07, 0x2d, 0xff, 0xfd, 0x13, 0x02, 0x02, 0x11, 0x03, 0xfa, 0x03,
    0x06, 0xfc, 0x00, 0xf1, 0xef, 0xfb, 0x00, 0x0b, 0x12, 0x02, 0x01, 0xfa,
    0x05, 0x2a, 0xf4, 0xfa, 0xff, 0xe9, 0x04, 0xfb, 0x1b, 0x0c, 0x0c, 0x00,
    0xfa, 0xfb, 0x02, 0x03, 0xff, 0x01, 0x11, 0x04, 0x02, 0xfc, 0x00, 0xfd,
    0x06, 0x00, 0x02, 0x0e, 0x01, 0xfb, 0xf1, 0xf8, 0x07, 0x04, 0xfe, 0xfc,
    0xff, 0xff, 0xf8, 0xfb, 0x09, 0xfe, 0xfb, 0x1a, 0x05, 0x02, 0x01, 0xed,
    0xfb, 0xfc, 0x01, 0xff, 0x02, 0x09, 0x00, 0x01, 0xfb, 0xff, 0xfe, 0x0c,
    0x06, 0x03, 0xfa, 0x10, 0x02, 0xfb, 0x00, 0x0f, 0x02, 0xf8, 0xff, 0xfc,
    0x09, 0xfb, 0xff, 0x12, 0xff, 0x03, 0x01, 0xe1, 0xdd, 0xfb, 0xe3, 0xfe,
    0xfe, 0x01, 0xff, 0xdf, 0x07, 0x03, 0xfd, 0xe6, 0x01, 0xee, 0x16, 0x04,
    0x02, 0xea, 0x0b, 0xd8, 0xf3, 0xf5, 0x03, 0xe2, 0xef, 0xec, 0x03, 0xff,
    0x02, 0xf8, 0x02, 0x0a, 0xfe, 0x03, 0x0a, 0xfd, 0xf8, 0xf7, 0x00, 0x02,
    0x00, 0x03, 0xfe, 0x02, 0x15, 0x1a, 0x02, 0x02, 0xf7, 0x02, 0x04, 0x02,
    0x04, 0x00, 0xfc, 0x0c, 0x00, 0x0b, 0x10, 0x01, 0x13, 0x1d, 0xff, 0x13,
    0xf9, 0x0b, 0xff, 0xff, 0x21, 0xf5, 0x03, 0xfd, 0x02, 0x1d, 0xfd, 0x08,
    0xf5, 0xf4, 0x2c, 0x29, 0x33, 0xe8, 0x00, 0x06, 0xf3, 0xfe, 0x16, 0xef,
    0x01, 0x01, 0x1b, 0x05, 0x00, 0xf9, 0xfd, 0x09, 0x13, 0x02, 0xfe, 0xfd,
    0xf4, 0x01, 0x02, 0xf8, 0x0e, 0x00, 0xfd, 0x0a, 0x0a, 0x1a, 0x15, 0xfd,
    0x02, 0x14, 0x12, 0xfb, 0xf7, 0x07, 0x0e, 0x03, 0x18, 0x25, 0xf1, 0x01,
    0x06, 0x02, 0xff, 0x18, 0x03, 0x04, 0x03, 0xfd, 0xe9, 0xf5, 0x00, 0x06,
    0x01, 0x07, 0x00, 0x06, 0x0f, 0x0f, 0xfe, 0x06, 0x0c, 0x05, 0xfe, 0x04,
    0x1f, 0x09, 0x1d, 0x06, 0x05, 0x08, 0x02, 0xfe, 0x16, 0xca, 0x01, 0x03,
    0x1e, 0x0d, 0x04, 0xff, 0x05, 0xe4, 0x03, 0x02, 0xd9, 0x07, 0x02, 0xf5,
    0xcd, 0xfd, 0xf9, 0x28, 0x04, 0xf4, 0xf3, 0x00, 0xfa, 0xee, 0x0a, 0xea,
    0xf0, 0x01, 0xd1, 0xfb, 0x02, 0xfd, 0x02, 0xff, 0x1f, 0xfe, 0x0a, 0xfd,
    0xf8, 0x04, 0xfe, 0x0d, 0x0c, 0x02, 0x02, 0x0e, 0x21, 0x03, 0x09, 0x00,
    0xfa, 0x17, 0xff, 0x0d, 0x05, 0x25, 0x03, 0x0e, 0x23, 0x03, 0xec, 0x03,
    0x01, 0x06, 0x02, 0x26, 0x0a, 0x04, 0x1b, 0xfe, 0x01, 0xec, 0x01, 0x18,
    0x18, 0x01, 0xfd, 0xf8, 0xf8, 0x08, 0xef, 0xfc, 0xfe, 0x01, 0x01, 0x0d,
    0x25, 0x13, 0x26, 0x19, 0x03, 0x1c, 0x04, 0x0f, 0xfe, 0x02, 0x02, 0x28,
    0xf9, 0xfd, 0x14, 0x03, 0x0d, 0x01, 0x01, 0x18, 0xfa, 0xef, 0x02, 0xf3,
    0xf9, 0x13, 0xff, 0xfa, 0xf6, 0x17, 0xfb, 0x08, 0x0a, 0x00, 0x06, 0x10,
    0xfe, 0x17, 0x06, 0x0d, 0x07, 0x02, 0xfe, 0x0b, 0x27, 0x06, 0x0b, 0x01,
    0x01, 0x07, 0x02, 0x11, 0x04, 0x05, 0x02, 0x06, 0xfa, 0x02, 0x00, 0x08,
    0x03, 0x13, 0x01, 0x10, 0x13, 0x1f, 0xf6, 0x18, 0x09, 0xff, 0xfd, 0x07,
    0x0e, 0xf2, 0xfe, 0xf9, 0x0a, 0x03, 0x01, 0xfd, 0x00, 0xff, 0xfe, 0x06,
    0x09, 0x07, 0x00, 0xfb, 0xf6, 0xfd, 0x06, 0x04, 0x0d, 0x00, 0xfb, 0xfc,
    0x0d, 0x08, 0x0b, 0xfa, 0x01, 0xec, 0xed, 0xfe, 0xf2, 0xfe, 0x03, 0xf9,
    0xfb, 0x00, 0x06, 0x02, 0x05, 0xf2, 0x02, 0x08, 0xf2, 0xed, 0x00, 0xfe,
    0xf3, 0xe8, 0xf2, 0xed, 0xf5, 0x0a, 0xfd, 0x01, 0xff, 0x00, 0xfc, 0xf3,
    0x01, 0x0e, 0xf9, 0x03, 0xff, 0xfe, 0xfe, 0x05, 0x0f, 0xfc, 0xfc, 0x03,
    0x00, 0x06, 0x00, 0xfe, 0xfd, 0x02, 0xfe, 0x05, 0xfd, 0x09, 0x00, 0x04,
    0xf9, 0x0e, 0xf9, 0x0c, 0x00, 0xf3, 0xfd, 0xef, 0x0a, 0x04, 0xfa, 0x03,
    0xef, 0x0a, 0x00, 0xf6, 0x01, 0x03, 0x00, 0xfd, 0xf3, 0x14, 0x01, 0x02,
    0x14, 0x04, 0x02, 0x16, 0x0c, 0x17, 0x0d, 0x01, 0x0d, 0x02, 0x03, 0xf5,
    0xf0, 0xf7, 0x02, 0x04, 0x09, 0x01, 0x03, 0xf9, 0xd5, 0x0a, 0x03, 0xf4,
    0xf7, 0xce, 0x00, 0x03, 0x13, 0x09, 0x00, 0xfd, 0x04, 0xe3, 0x02, 0x01,
    0xfd, 0xf6, 0x1a, 0xe9, 0xee, 0x17, 0xff, 0xeb, 0xe9, 0xee, 0xf4, 0xe2,
    0x15, 0x02, 0x0c, 0x04, 0x01, 0x00, 0xff, 0xff, 0xff, 0x0a, 0x01, 0x02,
    0xf9, 0x00, 0x03, 0xfe, 0xeb, 0x08, 0xfe, 0x0a, 0xfd, 0x02, 0xfb, 0x06,
    0xfc, 0x0c, 0x19, 0xf8, 0xff, 0xef, 0xfb, 0xeb, 0x04, 0x00, 0x03, 0x00,
    0xee, 0xf2, 0xff, 0xff, 0x00, 0x00, 0x00, 0x09, 0x10, 0x00, 0x00, 0x00,
    0x0b, 0x00, 0x00, 0x00, 0x14, 0x00, 0x00, 0x00, 0x7c, 0x00, 0x00, 0x00,
    0x02, 0x00, 0x00, 0x00, 0x10, 0x00, 0x00, 0x00, 0x20, 0x01, 0x00, 0x00,
    0x67, 0x00, 0x00, 0x00, 0x73, 0x65, 0x71, 0x75, 0x65, 0x6e, 0x74, 0x69,
    0x61, 0x6c, 0x5f, 0x31, 0x32, 0x2f, 0x71, 0x75, 0x61, 0x6e, 0x74, 0x5f,
    0x64, 0x65, 0x6e, 0x73, 0x65, 0x5f, 0x32, 0x34, 0x2f, 0x4d, 0x61, 0x74,
    0x4d, 0x75, 0x6c, 0x3b, 0x73, 0x65, 0x71, 0x75, 0x65, 0x6e, 0x74, 0x69,
    0x61, 0x6c, 0x5f, 0x31, 0x32, 0x2f, 0x71, 0x75, 0x61, 0x6e, 0x74, 0x5f,
    0x64, 0x65, 0x6e, 0x73, 0x65, 0x5f, 0x32, 0x34, 0x2f, 0x4c, 0x61, 0x73,
    0x74, 0x56, 0x61, 0x6c, 0x75, 0x65, 0x51, 0x75, 0x61, 0x6e, 0x74, 0x2f,
    0x46, 0x61, 0x6b, 0x65, 0x51, 0x75, 0x61, 0x6e, 0x74, 0x57, 0x69, 0x74,
    0x68, 0x4d, 0x69, 0x6e, 0x4d, 0x61, 0x78, 0x56, 0x61, 0x72, 0x73, 0x00,
    0x40, 0xf5, 0xff, 0xff, 0x08, 0x00, 0x00, 0x00, 0x0c, 0x00, 0x00, 0x00,
    0x01, 0x00, 0x00, 0x00, 0x5c, 0xc6, 0x20, 0x3d, 0x01, 0x00, 0x00, 0x00,
    0x00, 0x00, 0x00, 0x00, 0x00, 0x00, 0x00, 0x00, 0x00, 0x00, 0x0a, 0x00,
    0x10, 0x00, 0x04, 0x00, 0x08, 0x00, 0x0c, 0x00, 0x0a, 0x00, 0x00, 0x00,
    0x03, 0x00, 0x00, 0x00, 0x10, 0x00, 0x00, 0x00, 0x04, 0x00, 0x00, 0x00,
    0x01, 0x00, 0x00, 0x00, 0x09, 0x00, 0x00, 0x00, 0x02, 0x00, 0x00, 0x00,
    0x08, 0x00, 0x00, 0x00, 0x01, 0x00, 0x00, 0x00, 0xec, 0xfc, 0xff, 0xff,
    0x16, 0x00, 0x00, 0x00, 0x00, 0x00, 0x00, 0x16, 0x01, 0x00, 0x00, 0x00,
    0xe0, 0xfc, 0xff, 0xff, 0x00, 0x00, 0x00, 0x09, 0x14, 0x00, 0x00, 0x00,
    0x0a, 0x00, 0x00, 0x00, 0x18, 0x00, 0x00, 0x00, 0x4c, 0x00, 0x00, 0x00,
    0x3c, 0x00, 0x00, 0x00, 0x02, 0x00, 0x00, 0x00, 0x01, 0x00, 0x00, 0x00,
    0x20, 0x01, 0x00, 0x00, 0x26, 0x00, 0x00, 0x00, 0x73, 0x65, 0x71, 0x75,
    0x65, 0x6e, 0x74, 0x69, 0x61, 0x6c, 0x5f, 0x31, 0x32, 0x2f, 0x71, 0x75,
    0x61, 0x6e, 0x74, 0x5f, 0x66, 0x6c, 0x61, 0x74, 0x74, 0x65, 0x6e, 0x5f,
    0x31, 0x32, 0x2f, 0x52, 0x65, 0x73, 0x68, 0x61, 0x70, 0x65, 0x00, 0x00,
    0x02, 0x00, 0x00, 0x00, 0xff, 0xff, 0xff, 0xff, 0x20, 0x01, 0x00, 0x00,
    0x00, 0xf6, 0xff, 0xff, 0x08, 0x00, 0x00, 0x00, 0x0c, 0x00, 0x00, 0x00,
    0x01, 0x00, 0x00, 0x00, 0x61, 0xc3, 0xe4, 0x3b, 0x01, 0x00, 0x00, 0x00,
    0x80, 0xff, 0xff, 0xff, 0xff, 0xff, 0xff, 0xff, 0x00, 0x00, 0x0e, 0x00,
    0x1a, 0x00, 0x08, 0x00, 0x0c, 0x00, 0x10, 0x00, 0x07, 0x00, 0x14, 0x00,
    0x0e, 0x00, 0x00, 0x00, 0x00, 0x00, 0x00, 0x05, 0x02, 0x00, 0x00, 0x00,
    0x3c, 0x00, 0x00, 0x00, 0x30, 0x00, 0x00, 0x00, 0x14, 0x00, 0x00, 0x00,
    0x00, 0x00, 0x0e, 0x00, 0x18, 0x00, 0x17, 0x00, 0x10, 0x00, 0x0c, 0x00,
    0x08, 0x00, 0x04, 0x00, 0x0e, 0x00, 0x00, 0x00, 0x02, 0x00, 0x00, 0x00,
    0x02, 0x00, 0x00, 0x00, 0x02, 0x00, 0x00, 0x00, 0x02, 0x00, 0x00, 0x00,
    0x00, 0x00, 0x00, 0x01, 0x01, 0x00, 0x00, 0x00, 0x08, 0x00, 0x00, 0x00,
    0x01, 0x00, 0x00, 0x00, 0x07, 0x00, 0x00, 0x00, 0xdc, 0xfd, 0xff, 0xff,
    0x11, 0x00, 0x00, 0x00, 0x00, 0x00, 0x00, 0x11, 0x02, 0x00, 0x00, 0x00,
    0xd0, 0xfd, 0xff, 0xff, 0x00, 0x00, 0x00, 0x09, 0x14, 0x00, 0x00, 0x00,
    0x09, 0x00, 0x00, 0x00, 0x20, 0x00, 0x00, 0x00, 0x64, 0x00, 0x00, 0x00,
    0x4c, 0x00, 0x00, 0x00, 0x04, 0x00, 0x00, 0x00, 0x01, 0x00, 0x00, 0x00,
    0x03, 0x00, 0x00, 0x00, 0x03, 0x00, 0x00, 0x00, 0x20, 0x00, 0x00, 0x00,
    0x2c, 0x00, 0x00, 0x00, 0x73, 0x65, 0x71, 0x75, 0x65, 0x6e, 0x74, 0x69,
    0x61, 0x6c, 0x5f, 0x31, 0x32, 0x2f, 0x71, 0x75, 0x61, 0x6e, 0x74, 0x5f,
    0x6d, 0x61, 0x78, 0x5f, 0x70, 0x6f, 0x6f, 0x6c, 0x69, 0x6e, 0x67, 0x32,
    0x64, 0x5f, 0x31, 0x35, 0x2f, 0x4d, 0x61, 0x78, 0x50, 0x6f, 0x6f, 0x6c,
    0x00, 0x00, 0x00, 0x00, 0x04, 0x00, 0x00, 0x00, 0xff, 0xff, 0xff, 0xff,
    0x03, 0x00, 0x00, 0x00, 0x03, 0x00, 0x00, 0x00, 0x20, 0x00, 0x00, 0x00,
    0x08, 0xf7, 0xff, 0xff, 0x08, 0x00, 0x00, 0x00, 0x0c, 0x00, 0x00, 0x00,
    0x01, 0x00, 0x00, 0x00, 0x61, 0xc3, 0xe4, 0x3b, 0x01, 0x00, 0x00, 0x00,
    0x80, 0xff, 0xff, 0xff, 0xff, 0xff, 0xff, 0xff, 0x00, 0x00, 0x0e, 0x00,
    0x18, 0x00, 0x08, 0x00, 0x0c, 0x00, 0x10, 0x00, 0x07, 0x00, 0x14, 0x00,
    0x0e, 0x00, 0x00, 0x00, 0x00, 0x00, 0x00, 0x01, 0x01, 0x00, 0x00, 0x00,
    0x30, 0x00, 0x00, 0x00, 0x24, 0x00, 0x00, 0x00, 0x10, 0x00, 0x00, 0x00,
    0x0c, 0x00, 0x10, 0x00, 0x0e, 0x00, 0x04, 0x00, 0x08, 0x00, 0x0f, 0x00,
    0x0c, 0x00, 0x00, 0x00, 0x01, 0x00, 0x00, 0x00, 0x01, 0x00, 0x00, 0x00,
    0x00, 0x00, 0x01, 0x01, 0x01, 0x00, 0x00, 0x00, 0x07, 0x00, 0x00, 0x00,
    0x03, 0x00, 0x00, 0x00, 0x06, 0x00, 0x00, 0x00, 0x02, 0x00, 0x00, 0x00,
    0x03, 0x00, 0x00, 0x00, 0xe0, 0xfe, 0xff, 0xff, 0x03, 0x00, 0x00, 0x00,
    0x00, 0x00, 0x00, 0x03, 0x03, 0x00, 0x00, 0x00, 0xd4, 0xfe, 0xff, 0xff,
    0x00, 0x00, 0x00, 0x09, 0x14, 0x00, 0x00, 0x00, 0x08, 0x00, 0x00, 0x00,
    0x20, 0x00, 0x00, 0x00, 0xb0, 0x00, 0x00, 0x00, 0x98, 0x00, 0x00, 0x00,
    0x04, 0x00, 0x00, 0x00, 0x01, 0x00, 0x00, 0x00, 0x06, 0x00, 0x00, 0x00,
    0x06, 0x00, 0x00, 0x00, 0x20, 0x00, 0x00, 0x00, 0x7b, 0x00, 0x00, 0x00,
    0x73, 0x65, 0x71, 0x75, 0x65, 0x6e, 0x74, 0x69, 0x61, 0x6c, 0x5f, 0x31,
    0x32, 0x2f, 0x71, 0x75, 0x61, 0x6e, 0x74, 0x5f, 0x72, 0x65, 0x5f, 0x6c,
    0x75, 0x5f, 0x31, 0x35, 0x2f, 0x52, 0x65, 0x6c, 0x75, 0x3b, 0x73, 0x65,
    0x71, 0x75, 0x65, 0x6e, 0x74, 0x69, 0x61, 0x6c, 0x5f, 0x31, 0x32, 0x2f,
    0x71, 0x75, 0x61, 0x6e, 0x74, 0x5f, 0x63, 0x6f, 0x6e, 0x76, 0x32, 0x64,
    0x5f, 0x31, 0x35, 0x2f, 0x42, 0x69, 0x61, 0x73, 0x41, 0x64, 0x64, 0x3b,
    0x73, 0x65, 0x71, 0x75, 0x65, 0x6e, 0x74, 0x69, 0x61, 0x6c, 0x5f, 0x31,
    0x32, 0x2f, 0x71, 0x75, 0x61, 0x6e, 0x74, 0x5f, 0x63, 0x6f, 0x6e, 0x76,
    0x32, 0x64, 0x5f, 0x31, 0x35, 0x2f, 0x43, 0x6f, 0x6e, 0x76, 0x32, 0x44,
    0x3b, 0x63, 0x6f, 0x6e, 0x76, 0x32, 0x64, 0x5f, 0x31, 0x35, 0x2f, 0x62,
    0x69, 0x61, 0x73, 0x00, 0x04, 0x00, 0x00, 0x00, 0xff, 0xff, 0xff, 0xff,
    0x06, 0x00, 0x00, 0x00, 0x06, 0x00, 0x00, 0x00, 0x20, 0x00, 0x00, 0x00,
    0x58, 0xf8, 0xff, 0xff, 0x08, 0x00, 0x00, 0x00, 0x0c, 0x00, 0x00, 0x00,
    0x01, 0x00, 0x00, 0x00, 0x61, 0xc3, 0xe4, 0x3b, 0x01, 0x00, 0x00, 0x00,
    0x80, 0xff, 0xff, 0xff, 0xff, 0xff, 0xff, 0xff, 0x00, 0x00, 0x00, 0x00,
    0x00, 0x00, 0x0a, 0x00, 0x0c, 0x00, 0x00, 0x00, 0x04, 0x00, 0x08, 0x00,
    0x0a, 0x00, 0x00, 0x00, 0x10, 0x00, 0x00, 0x00, 0x04, 0x00, 0x00, 0x00,
    0x01, 0x00, 0x00, 0x00, 0x06, 0x00, 0x00, 0x00, 0x01, 0x00, 0x00, 0x00,
    0x00, 0x00, 0x00, 0x00, 0x0c, 0x00, 0x10, 0x00, 0x0b, 0x00, 0x00, 0x00,
    0x0c, 0x00, 0x04, 0x00, 0x0c, 0x00, 0x00, 0x00, 0x72, 0x00, 0x00, 0x00,
    0x00, 0x00, 0x00, 0x72, 0x01, 0x00, 0x00, 0x00, 0x14, 0x00, 0x1c, 0x00,
    0x08, 0x00, 0x07, 0x00, 0x0c, 0x00, 0x10, 0x00, 0x14, 0x00, 0x00, 0x00,
    0x00, 0x00, 0x18, 0x00, 0x14, 0x00, 0x00, 0x00, 0x00, 0x00, 0x00, 0x09,
    0x14, 0x00, 0x00, 0x00, 0x07, 0x00, 0x00, 0x00, 0x20, 0x00, 0x00, 0x00,
    0xd0, 0x00, 0x00, 0x00, 0xb8, 0x00, 0x00, 0x00, 0x04, 0x00, 0x00, 0x00,
    0x01, 0x00, 0x00, 0x00, 0x08, 0x00, 0x00, 0x00, 0x08, 0x00, 0x00, 0x00,
    0x02, 0x00, 0x00, 0x00, 0x99, 0x00, 0x00, 0x00, 0x73, 0x65, 0x71, 0x75,
    0x65, 0x6e, 0x74, 0x69, 0x61, 0x6c, 0x5f, 0x31, 0x32, 0x2f, 0x71, 0x75,
    0x61, 0x6e, 0x74, 0x69, 0x7a, 0x65, 0x5f, 0x6c, 0x61, 0x79, 0x65, 0x72,
    0x5f, 0x31, 0x30, 0x2f, 0x41, 0x6c, 0x6c, 0x56, 0x61, 0x6c, 0x75, 0x65,
    0x73, 0x51, 0x75, 0x61, 0x6e, 0x74, 0x69, 0x7a, 0x65, 0x2f, 0x46, 0x61,
    0x6b, 0x65, 0x51, 0x75, 0x61, 0x6e, 0x74, 0x57, 0x69, 0x74, 0x68, 0x4d,
    0x69, 0x6e, 0x4d, 0x61, 0x78, 0x56, 0x61, 0x72, 0x73, 0x3b, 0x71, 0x75,
    0x61, 0x6e, 0x74, 0x69, 0x7a, 0x65, 0x5f, 0x6c, 0x61, 0x79, 0x65, 0x72,
    0x5f, 0x31, 0x30, 0x2f, 0x71, 0x75, 0x61, 0x6e, 0x74, 0x69, 0x7a, 0x65,
    0x5f, 0x6c, 0x61, 0x79, 0x65, 0x72, 0x5f, 0x31, 0x30, 0x5f, 0x6d, 0x69,
    0x6e, 0x3b, 0x71, 0x75, 0x61, 0x6e, 0x74, 0x69, 0x7a, 0x65, 0x5f, 0x6c,
    0x61, 0x79, 0x65, 0x72, 0x5f, 0x31, 0x30, 0x2f, 0x71, 0x75, 0x61, 0x6e,
    0x74, 0x69, 0x7a, 0x65, 0x5f, 0x6c, 0x61, 0x79, 0x65, 0x72, 0x5f, 0x31,
    0x30, 0x5f, 0x6d, 0x61, 0x78, 0x00, 0x00, 0x00, 0x04, 0x00, 0x00, 0x00,
    0xff, 0xff, 0xff, 0xff, 0x08, 0x00, 0x00, 0x00, 0x08, 0x00, 0x00, 0x00,
    0x02, 0x00, 0x00, 0x00, 0xb8, 0xf9, 0xff, 0xff, 0x08, 0x00, 0x00, 0x00,
    0x0c, 0x00, 0x00, 0x00, 0x01, 0x00, 0x00, 0x00, 0xad, 0x64, 0x83, 0x3b,
    0x01, 0x00, 0x00, 0x00, 0x80, 0xff, 0xff, 0xff, 0xff, 0xff, 0xff, 0xff,
    0x32, 0xf8, 0xff, 0xff, 0x04, 0x00, 0x00, 0x00, 0x28, 0x00, 0x00, 0x00,
    0x40, 0xff, 0xff, 0xff, 0xd7, 0xff, 0xff, 0xff, 0x78, 0xff, 0xff, 0xff,
    0x4e, 0xfe, 0xff, 0xff, 0x7b, 0x01, 0x00, 0x00, 0xfa, 0x00, 0x00, 0x00,
    0x9f, 0x00, 0x00, 0x00, 0xe1, 0xff, 0xff, 0xff, 0x4d, 0xfe, 0xff, 0xff,
    0xfd, 0xff, 0xff, 0xff, 0x4a, 0xf8, 0xff, 0xff, 0x00, 0x00, 0x00, 0x02,
    0x10, 0x00, 0x00, 0x00, 0x06, 0x00, 0x00, 0x00, 0x10, 0x00, 0x00, 0x00,
    0x20, 0x00, 0x00, 0x00, 0x01, 0x00, 0x00, 0x00, 0x0a, 0x00, 0x00, 0x00,
    0x0d, 0x00, 0x00, 0x00, 0x64, 0x65, 0x6e, 0x73, 0x65, 0x5f, 0x32, 0x35,
    0x2f, 0x62, 0x69, 0x61, 0x73, 0x00, 0x00, 0x00, 0x40, 0xfa, 0xff, 0xff,
    0x08, 0x00, 0x00, 0x00, 0x0c, 0x00, 0x00, 0x00, 0x01, 0x00, 0x00, 0x00,
    0x25, 0x07, 0xe2, 0x3a, 0x01, 0x00, 0x00, 0x00, 0x00, 0x00, 0x00, 0x00,
    0x00, 0x00, 0x00, 0x00, 0xba, 0xf8, 0xff, 0xff, 0x04, 0x00, 0x00, 0x00,
    0x40, 0x00, 0x00, 0x00, 0x94, 0xfb, 0xff, 0xff, 0x90, 0x04, 0x00, 0x00,
    0xf4, 0xfb, 0xff, 0xff, 0xa7, 0xfe, 0xff, 0xff, 0xde, 0x02, 0x00, 0x00,
    0x77, 0x09, 0x00, 0x00, 0xc9, 0xfe, 0xff, 0xff, 0x40, 0x05, 0x00, 0x00,
    0x79, 0xf6, 0xff, 0xff, 0x9a, 0xf5, 0xff, 0xff, 0x24, 0x04, 0x00, 0x00,
    0xd4, 0x00, 0x00, 0x00, 0xc2, 0x04, 0x00, 0x00, 0x8e, 0x06, 0x00, 0x00,
    0x45, 0x02, 0x00, 0x00, 0xaa, 0x08, 0x00, 0x00, 0xea, 0xf8, 0xff, 0xff,
    0x00, 0x00, 0x00, 0x02, 0x10, 0x00, 0x00, 0x00, 0x05, 0x00, 0x00, 0x00,
    0x10, 0x00, 0x00, 0x00, 0x20, 0x00, 0x00, 0x00, 0x01, 0x00, 0x00, 0x00,
    0x10, 0x00, 0x00, 0x00, 0x0d, 0x00, 0x00, 0x00, 0x64, 0x65, 0x6e, 0x73,
    0x65, 0x5f, 0x32, 0x34, 0x2f, 0x62, 0x69, 0x61, 0x73, 0x00, 0x00, 0x00,
    0xe0, 0xfa, 0xff, 0xff, 0x08, 0x00, 0x00, 0x00, 0x0c, 0x00, 0x00, 0x00,
    0x01, 0x00, 0x00, 0x00, 0x5e, 0xab, 0x8f, 0x39, 0x01, 0x00, 0x00, 0x00,
    0x00, 0x00, 0x00, 0x00, 0x00, 0x00, 0x00, 0x00, 0x00, 0x00, 0x00, 0x00,
    0x5e, 0xf9, 0xff, 0xff, 0x04, 0x00, 0x00, 0x00, 0x80, 0x00, 0x00, 0x00,
    0x90, 0x14, 0x00, 0x00, 0x29, 0xfb, 0xff, 0xff, 0xd5, 0xea, 0xff, 0xff,
    0xf6, 0xf9, 0xff, 0xff, 0x86, 0xf2, 0xff, 0xff, 0x2a, 0x04, 0x00, 0x00,
    0x3a, 0xfe, 0xff, 0xff, 0x1d, 0xf3, 0xff, 0xff, 0xde, 0xe1, 0xff, 0xff,
    0xfe, 0x26, 0x00, 0x00, 0x69, 0xed, 0xff, 0xff, 0x19, 0xe5, 0xff, 0xff,
    0x19, 0x39, 0x00, 0x00, 0x0e, 0x13, 0x00, 0x00, 0xcb, 0xf1, 0xff, 0xff,
    0x24, 0x07, 0x00, 0x00, 0x78, 0x16, 0x00, 0x00, 0x1b, 0x2f, 0x00, 0x00,
    0x80, 0x18, 0x00, 0x00, 0x04, 0xe6, 0xff, 0xff, 0x3e, 0xf7, 0xff, 0xff,
    0x2e, 0x04, 0x00, 0x00, 0xfe, 0x23, 0x00, 0x00, 0x5e, 0xfe, 0xff, 0xff,
    0x04, 0x06, 0x00, 0x00, 0xf7, 0x15, 0x00, 0x00, 0x7c, 0x1e, 0x00, 0x00,
    0x25, 0x3a, 0x00, 0x00, 0x67, 0xfe, 0xff, 0xff, 0x70, 0x00, 0x00, 0x00,
    0x89, 0x10, 0x00, 0x00, 0x44, 0xf4, 0xff, 0xff, 0xce, 0xf9, 0xff, 0xff,
    0x00, 0x00, 0x00, 0x02, 0x10, 0x00, 0x00, 0x00, 0x04, 0x00, 0x00, 0x00,
    0x10, 0x00, 0x00, 0x00, 0x20, 0x00, 0x00, 0x00, 0x01, 0x00, 0x00, 0x00,
    0x20, 0x00, 0x00, 0x00, 0x0e, 0x00, 0x00, 0x00, 0x63, 0x6f, 0x6e, 0x76,
    0x32, 0x64, 0x5f, 0x31, 0x35, 0x2f, 0x62, 0x69, 0x61, 0x73, 0x00, 0x00,
    0xc4, 0xfb, 0xff, 0xff, 0x08, 0x00, 0x00, 0x00, 0x88, 0x00, 0x00, 0x00,
    0x20, 0x00, 0x00, 0x00, 0x82, 0xd6, 0x3e, 0x38, 0x2f, 0x95, 0x1c, 0x38,
    0xbc, 0xcb, 0x99, 0x36, 0x85, 0x67, 0x28, 0x38, 0x92, 0xb4, 0x49, 0x38,
    0x91, 0x7e, 0xd0, 0x37, 0xb6, 0xfd, 0x30, 0x38, 0x3c, 0x48, 0xa5, 0x36,
    0x85, 0x65, 0xf9, 0x37, 0x30, 0x88, 0x00, 0x38, 0x45, 0xd7, 0xa4, 0x36,
    0x9f, 0x28, 0x39, 0x38, 0xef, 0x5b, 0x10, 0x38, 0x24, 0x6c, 0xc8, 0x37,
    0xde, 0x87, 0x91, 0x36, 0x3c, 0x9b, 0x44, 0x38, 0x74, 0x33, 0x67, 0x38,
    0x92, 0x7f, 0x2a, 0x38, 0x60, 0x35, 0x06, 0x38, 0xac, 0xee, 0x19, 0x38,
    0x47, 0x7e, 0xe6, 0x37, 0xb8, 0xcf, 0x12, 0x38, 0xcf, 0xd4, 0x03, 0x38,
    0xab, 0x56, 0x8c, 0x38, 0x81, 0x98, 0x80, 0x38, 0x5e, 0x57, 0x80, 0x38,
    0x60, 0xa6, 0x39, 0x38, 0x08, 0x3b, 0x26, 0x38, 0x00, 0x70, 0x32, 0x38,
    0x8a, 0x00, 0x27, 0x38, 0x86, 0xc9, 0x12, 0x38, 0xcd, 0xa5, 0xe8, 0x37,
    0x20, 0x00, 0x00, 0x00, 0x00, 0x00, 0x00, 0x00, 0x00, 0x00, 0x00, 0x00,
    0x00, 0x00, 0x00, 0x00, 0x00, 0x00, 0x00, 0x00, 0x00, 0x00, 0x00, 0x00,
    0x00, 0x00, 0x00, 0x00, 0x00, 0x00, 0x00, 0x00, 0x00, 0x00, 0x00, 0x00,
    0x00, 0x00, 0x00, 0x00, 0x00, 0x00, 0x00, 0x00, 0x00, 0x00, 0x00, 0x00,
    0x00, 0x00, 0x00, 0x00, 0x00, 0x00, 0x00, 0x00, 0x00, 0x00, 0x00, 0x00,
    0x00, 0x00, 0x00, 0x00, 0x00, 0x00, 0x00, 0x00, 0x00, 0x00, 0x00, 0x00,
    0x00, 0x00, 0x00, 0x00, 0x00, 0x00, 0x00, 0x00, 0x00, 0x00, 0x00, 0x00,
    0x00, 0x00, 0x00, 0x00, 0x00, 0x00, 0x00, 0x00, 0x00, 0x00, 0x00, 0x00,
    0x00, 0x00, 0x00, 0x00, 0x00, 0x00, 0x00, 0x00, 0x00, 0x00, 0x00, 0x00,
    0x00, 0x00, 0x00, 0x00, 0x00, 0x00, 0x00, 0x00, 0x00, 0x00, 0x00, 0x00,
    0x00, 0x00, 0x00, 0x00, 0x00, 0x00, 0x00, 0x00, 0x00, 0x00, 0x00, 0x00,
    0x00, 0x00, 0x00, 0x00, 0x00, 0x00, 0x00, 0x00, 0x00, 0x00, 0x00, 0x00,
    0x00, 0x00, 0x00, 0x00, 0x00, 0x00, 0x00, 0x00, 0x00, 0x00, 0x00, 0x00,
    0x00, 0x00, 0x00, 0x00, 0x00, 0x00, 0x00, 0x00, 0x00, 0x00, 0x00, 0x00,
    0x00, 0x00, 0x00, 0x00, 0x00, 0x00, 0x00, 0x00, 0x00, 0x00, 0x00, 0x00,
    0x00, 0x00, 0x00, 0x00, 0x00, 0x00, 0x00, 0x00, 0x00, 0x00, 0x00, 0x00,
    0x00, 0x00, 0x00, 0x00, 0x00, 0x00, 0x00, 0x00, 0x00, 0x00, 0x00, 0x00,
    0x00, 0x00, 0x00, 0x00, 0x00, 0x00, 0x00, 0x00, 0x00, 0x00, 0x00, 0x00,
    0x00, 0x00, 0x00, 0x00, 0x00, 0x00, 0x00, 0x00, 0x00, 0x00, 0x00, 0x00,
    0x00, 0x00, 0x00, 0x00, 0x00, 0x00, 0x00, 0x00, 0x00, 0x00, 0x00, 0x00,
    0x00, 0x00, 0x00, 0x00, 0x00, 0x00, 0x00, 0x00, 0x00, 0x00, 0x00, 0x00,
    0x00, 0x00, 0x00, 0x00, 0x00, 0x00, 0x00, 0x00, 0x00, 0x00, 0x00, 0x00,
    0xb6, 0xfb, 0xff, 0xff, 0x04, 0x00, 0x00, 0x00, 0x40, 0x02, 0x00, 0x00,
    0xa5, 0x81, 0xe9, 0x14, 0x08, 0xfb, 0xfd, 0x2d, 0xf1, 0x50, 0xfd, 0x0a,
    0x1d, 0x1b, 0x06, 0x0d, 0x0a, 0xf2, 0x06, 0x1d, 0x48, 0x13, 0x3e, 0x06,
    0xc2, 0xfe, 0x28, 0x03, 0x40, 0xf6, 0x81, 0xe8, 0xd1, 0xc8, 0x1b, 0xaf,
    0xbb, 0x96, 0xb4, 0xb0, 0xb7, 0x24, 0x87, 0x88, 0x56, 0x24, 0x29, 0x3c,
    0xbb, 0x45, 0xb9, 0x81, 0xd4, 0x4f, 0x81, 0x8b, 0xfc, 0x12, 0x1c, 0x9e,
    0xd6, 0x36, 0xfe, 0xfc, 0x48, 0xf4, 0x33, 0xfb, 0x36, 0x06, 0x3d, 0xec,
    0xf2, 0x27, 0x05, 0xfe, 0xeb, 0x81, 0x0f, 0x0e, 0x4f, 0x12, 0x00, 0xdc,
    0xe8, 0xb6, 0x49, 0xed, 0xed, 0xdf, 0x04, 0x0b, 0xef, 0x3e, 0xc4, 0xd6,
    0x05, 0x0d, 0x02, 0x7f, 0xc5, 0xc4, 0xeb, 0xa0, 0x70, 0x11, 0xe0, 0x06,
    0xea, 0x82, 0xfc, 0x8f, 0x07, 0x85, 0x1c, 0xe5, 0x2e, 0x81, 0x18, 0xf3,
    0x28, 0xf5, 0x35, 0xc4, 0x20, 0x0b, 0x16, 0x09, 0xc8, 0x50, 0x0f, 0x8e,
    0x81, 0x9d, 0x10, 0x9f, 0x09, 0xae, 0x08, 0x3f, 0xc6, 0xb4, 0xb6, 0xab,
    0x96, 0x1f, 0x45, 0xfc, 0x4d, 0xd4, 0xa0, 0x03, 0x64, 0x35, 0x4a, 0xcf,
    0x81, 0xda, 0x53, 0xfb, 0x18, 0xa2, 0x45, 0xb6, 0x2d, 0x9a, 0x00, 0x19,
    0x49, 0xbb, 0x14, 0x1c, 0xc0, 0x60, 0x14, 0xf4, 0x95, 0xc0, 0x81, 0x37,
    0x3c, 0xd0, 0xb7, 0x54, 0x81, 0xe1, 0xd5, 0xf4, 0xa9, 0x46, 0xfe, 0xf5,
    0xb6, 0xdb, 0xdb, 0x18, 0x97, 0x25, 0x09, 0xbf, 0x0d, 0x97, 0xf4, 0x81,
    0x25, 0xe3, 0x27, 0xf3, 0x1a, 0xdf, 0x2c, 0xf7, 0x26, 0x2c, 0x08, 0xfe,
    0x21, 0xed, 0x09, 0xa0, 0xec, 0x6b, 0x35, 0xeb, 0x0d, 0xb9, 0xe2, 0x2e,
    0x22, 0xcb, 0xdb, 0x9d, 0x81, 0xa1, 0xef, 0xc4, 0x0c, 0x07, 0xcd, 0x25,
    0x27, 0x27, 0x03, 0x7f, 0xa9, 0x52, 0x1b, 0xf6, 0x1a, 0xe5, 0x9b, 0x15,
    0xbc, 0x12, 0x4c, 0xe4, 0x2f, 0xb0, 0xd0, 0x8e, 0xa0, 0xdf, 0x81, 0xc0,
    0x16, 0x04, 0x44, 0x5a, 0xcc, 0xac, 0x1c, 0x45, 0x0c, 0xf6, 0x02, 0x8b,
    0xd2, 0x19, 0xff, 0x81, 0x22, 0x0f, 0xce, 0xc1, 0x17, 0xdd, 0x2b, 0x0a,
    0x2f, 0xd1, 0x33, 0x04, 0x01, 0x21, 0x36, 0xf4, 0xdf, 0x09, 0xee, 0xfd,
    0xd8, 0x00, 0x9e, 0x81, 0x0a, 0xfe, 0x38, 0xfe, 0x54, 0x0b, 0xfe, 0xe1,
    0xdb, 0x81, 0x16, 0x21, 0xbf, 0xc8, 0xb4, 0xd2, 0xe3, 0x13, 0xe3, 0x2b,
    0xff, 0xea, 0xdb, 0x15, 0xef, 0x26, 0x59, 0xb2, 0x1d, 0x3a, 0xf1, 0x69,
    0x2b, 0x14, 0x8b, 0x81, 0xc2, 0xa4, 0xf7, 0x81, 0x20, 0xef, 0xf2, 0x1f,
    0x17, 0x04, 0x16, 0x31, 0xc9, 0x52, 0x34, 0x1a, 0x11, 0x01, 0xac, 0x0d,
    0xfe, 0x0c, 0x40, 0x0f, 0x00, 0xe9, 0xa8, 0x74, 0x09, 0x63, 0x12, 0xcd,
    0x81, 0xca, 0xeb, 0x3f, 0x21, 0xf4, 0x04, 0xe9, 0x4a, 0x40, 0xf9, 0x96,
    0x1f, 0x8d, 0x4e, 0xff, 0xfd, 0xd8, 0xf0, 0x81, 0x0e, 0x10, 0xa2, 0xf0,
    0x4d, 0xf9, 0xca, 0x40, 0xb0, 0x3b, 0x22, 0x1d, 0x81, 0x5f, 0xbb, 0xf2,
    0x35, 0xfe, 0xd2, 0x06, 0xb2, 0x24, 0xfb, 0x2f, 0xcf, 0x81, 0x07, 0xdf,
    0xf9, 0x0e, 0xfb, 0x0a, 0x02, 0x20, 0x10, 0xf0, 0x1a, 0x11, 0xee, 0x28,
    0xe8, 0xff, 0xd0, 0x81, 0x05, 0x2a, 0x05, 0x10, 0xfc, 0xf2, 0xf2, 0x15,
    0x17, 0xff, 0x1f, 0x10, 0x0e, 0xfb, 0xf0, 0x11, 0xd4, 0x81, 0xec, 0x2d,
    0x0e, 0x26, 0xfd, 0x0f, 0xe4, 0xe7, 0x0b, 0xef, 0x29, 0xe8, 0x14, 0xf3,
    0xc8, 0xe9, 0x22, 0x41, 0x1b, 0x31, 0xac, 0x81, 0xe0, 0xb7, 0x1d, 0x17,
    0x33, 0x26, 0xf6, 0xe2, 0xfd, 0x85, 0xb9, 0x3f, 0xa4, 0x81, 0x22, 0x06,
    0xd2, 0x2b, 0xca, 0xe2, 0xf8, 0x1e, 0x3f, 0x0a, 0x04, 0xf2, 0x00, 0x16,
    0x13, 0x22, 0x42, 0x24, 0x1f, 0xaf, 0xf3, 0x10, 0x23, 0xf7, 0x17, 0xb4,
    0xd3, 0xd7, 0xec, 0x81, 0xd9, 0xcc, 0xe4, 0x0d, 0x3e, 0x24, 0x3e, 0xb8,
    0x96, 0x81, 0x1c, 0xd5, 0x39, 0x92, 0x04, 0x2e, 0xfe, 0xae, 0x2d, 0xeb,
    0xfa, 0x17, 0x6b, 0x01, 0x49, 0x0b, 0xb1, 0xda, 0x16, 0x23, 0x18, 0x0d,
    0x8c, 0x08, 0xd4, 0xe3, 0xf1, 0x81, 0xeb, 0x88, 0xda, 0xb3, 0x21, 0xe1,
    0xd9, 0x81, 0x14, 0x14, 0x3d, 0x3c, 0x1d, 0x9c, 0x1d, 0x3a, 0x41, 0x24,
    0xe6, 0xfd, 0xff, 0xff, 0x00, 0x00, 0x00, 0x09, 0x10, 0x00, 0x00, 0x00,
    0x03, 0x00, 0x00, 0x00, 0x1c, 0x00, 0x00, 0x00, 0x50, 0x00, 0x00, 0x00,
    0x04, 0x00, 0x00, 0x00, 0x20, 0x00, 0x00, 0x00, 0x03, 0x00, 0x00, 0x00,
    0x03, 0x00, 0x00, 0x00, 0x02, 0x00, 0x00, 0x00, 0x24, 0x00, 0x00, 0x00,
    0x73, 0x65, 0x71, 0x75, 0x65, 0x6e, 0x74, 0x69, 0x61, 0x6c, 0x5f, 0x31,
    0x32, 0x2f, 0x71, 0x75, 0x61, 0x6e, 0x74, 0x5f, 0x63, 0x6f, 0x6e, 0x76,
    0x32, 0x64, 0x5f, 0x31, 0x35, 0x2f, 0x43, 0x6f, 0x6e, 0x76, 0x32, 0x44,
    0x00, 0x00, 0x00, 0x00, 0x0c, 0x00, 0x0c, 0x00, 0x00, 0x00, 0x00, 0x00,
    0x04, 0x00, 0x08, 0x00, 0x0c, 0x00, 0x00, 0x00, 0x08, 0x00, 0x00, 0x00,
    0x88, 0x00, 0x00, 0x00, 0x20, 0x00, 0x00, 0x00, 0xd5, 0xe8, 0x39, 0x3c,
    0xfa, 0x89, 0x18, 0x3c, 0xf3, 0xd2, 0x95, 0x3a, 0x27, 0x0e, 0x24, 0x3c,
    0x0b, 0x7f, 0x44, 0x3c, 0x28, 0x1c, 0xcb, 0x3b, 0x94, 0x6b, 0x2c, 0x3c,
    0x83, 0x03, 0xa1, 0x3a, 0xb2, 0xf4, 0xf2, 0x3b, 0xdd, 0x6c, 0xfa, 0x3b,
    0x77, 0x95, 0xa0, 0x3a, 0x7d, 0x60, 0x34, 0x3c, 0x8a, 0xa1, 0x0c, 0x3c,
    0x19, 0x3f, 0xc3, 0x3b, 0xb9, 0xc5, 0x8d, 0x3a, 0x6b, 0x87, 0x3f, 0x3c,
    0xed, 0x3a, 0x61, 0x3c, 0x5d, 0x18, 0x26, 0x3c, 0x16, 0xbe, 0x02, 0x3c,
    0xfc, 0xf4, 0x15, 0x3c, 0x6e, 0x8a, 0xe0, 0x3b, 0x1c, 0x05, 0x0f, 0x3c,
    0x3d, 0x6d, 0x00, 0x3c, 0xdb, 0xb6, 0x88, 0x3c, 0xa5, 0x8c, 0x7a, 0x3c,
    0xbd, 0x0d, 0x7a, 0x3c, 0xff, 0xda, 0x34, 0x3c, 0x0a, 0xf0, 0x21, 0x3c,
    0x4e, 0xd4, 0x2d, 0x3c, 0x72, 0xb0, 0x22, 0x3c, 0x13, 0xff, 0x0e, 0x3c,
    0xb5, 0xa3, 0xe2, 0x3b, 0x20, 0x00, 0x00, 0x00, 0x00, 0x00, 0x00, 0x00,
    0x00, 0x00, 0x00, 0x00, 0x00, 0x00, 0x00, 0x00, 0x00, 0x00, 0x00, 0x00,
    0x00, 0x00, 0x00, 0x00, 0x00, 0x00, 0x00, 0x00, 0x00, 0x00, 0x00, 0x00,
    0x00, 0x00, 0x00, 0x00, 0x00, 0x00, 0x00, 0x00, 0x00, 0x00, 0x00, 0x00,
    0x00, 0x00, 0x00, 0x00, 0x00, 0x00, 0x00, 0x00, 0x00, 0x00, 0x00, 0x00,
    0x00, 0x00, 0x00, 0x00, 0x00, 0x00, 0x00, 0x00, 0x00, 0x00, 0x00, 0x00,
    0x00, 0x00, 0x00, 0x00, 0x00, 0x00, 0x00, 0x00, 0x00, 0x00, 0x00, 0x00,
    0x00, 0x00, 0x00, 0x00, 0x00, 0x00, 0x00, 0x00, 0x00, 0x00, 0x00, 0x00,
    0x00, 0x00, 0x00, 0x00, 0x00, 0x00, 0x00, 0x00, 0x00, 0x00, 0x00, 0x00,
    0x00, 0x00, 0x00, 0x00, 0x00, 0x00, 0x00, 0x00, 0x00, 0x00, 0x00, 0x00,
    0x00, 0x00, 0x00, 0x00, 0x00, 0x00, 0x00, 0x00, 0x00, 0x00, 0x00, 0x00,
    0x00, 0x00, 0x00, 0x00, 0x00, 0x00, 0x00, 0x00, 0x00, 0x00, 0x00, 0x00,
    0x00, 0x00, 0x00, 0x00, 0x00, 0x00, 0x00, 0x00, 0x00, 0x00, 0x00, 0x00,
    0x00, 0x00, 0x00, 0x00, 0x00, 0x00, 0x00, 0x00, 0x00, 0x00, 0x00, 0x00,
    0x00, 0x00, 0x00, 0x00, 0x00, 0x00, 0x00, 0x00, 0x00, 0x00, 0x00, 0x00,
    0x00, 0x00, 0x00, 0x00, 0x00, 0x00, 0x00, 0x00, 0x00, 0x00, 0x00, 0x00,
    0x00, 0x00, 0x00, 0x00, 0x00, 0x00, 0x00, 0x00, 0x00, 0x00, 0x00, 0x00,
    0x00, 0x00, 0x00, 0x00, 0x00, 0x00, 0x00, 0x00, 0x00, 0x00, 0x00, 0x00,
    0x00, 0x00, 0x00, 0x00, 0x00, 0x00, 0x00, 0x00, 0x00, 0x00, 0x00, 0x00,
    0x00, 0x00, 0x00, 0x00, 0x00, 0x00, 0x00, 0x00, 0x00, 0x00, 0x00, 0x00,
    0x00, 0x00, 0x00, 0x00, 0x00, 0x00, 0x00, 0x00, 0x00, 0x00, 0x00, 0x00,
    0x00, 0x00, 0x00, 0x00, 0x00, 0x00, 0x00, 0x00, 0x00, 0x00, 0x00, 0x00,
    0x00, 0x00, 0x00, 0x00, 0x00, 0x00, 0x06, 0x00, 0x08, 0x00, 0x04, 0x00,
    0x06, 0x00, 0x00, 0x00, 0x04, 0x00, 0x00, 0x00, 0x08, 0x00, 0x00, 0x00,
    0xff, 0xff, 0xff, 0xff, 0x20, 0x01, 0x00, 0x00, 0x00, 0x00, 0x0e, 0x00,
    0x18, 0x00, 0x08, 0x00, 0x07, 0x00, 0x0c, 0x00, 0x10, 0x00, 0x14, 0x00,
    0x0e, 0x00, 0x00, 0x00, 0x00, 0x00, 0x00, 0x02, 0x10, 0x00, 0x00, 0x00,
    0x02, 0x00, 0x00, 0x00, 0x10, 0x00, 0x00, 0x00, 0x38, 0x00, 0x00, 0x00,
    0x01, 0x00, 0x00, 0x00, 0x02, 0x00, 0x00, 0x00, 0x24, 0x00, 0x00, 0x00,
    0x73, 0x65, 0x71, 0x75, 0x65, 0x6e, 0x74, 0x69, 0x61, 0x6c, 0x5f, 0x31,
    0x32, 0x2f, 0x71, 0x75, 0x61, 0x6e, 0x74, 0x5f, 0x66, 0x6c, 0x61, 0x74,
    0x74, 0x65, 0x6e, 0x5f, 0x31, 0x32, 0x2f, 0x43, 0x6f, 0x6e, 0x73, 0x74,
    0x00, 0x00, 0x00, 0x00, 0x7c, 0xff, 0xff, 0xff, 0x14, 0x00, 0x18, 0x00,
    0x04, 0x00, 0x00, 0x00, 0x08, 0x00, 0x0c, 0x00, 0x10, 0x00, 0x00, 0x00,
    0x00, 0x00, 0x14, 0x00, 0x14, 0x00, 0x00, 0x00, 0x14, 0x00, 0x00, 0x00,
    0x01, 0x00, 0x00, 0x00, 0x20, 0x00, 0x00, 0x00, 0x58, 0x00, 0x00, 0x00,
    0x40, 0x00, 0x00, 0x00, 0x04, 0x00, 0x00, 0x00, 0x01, 0x00, 0x00, 0x00,
    0x08, 0x00, 0x00, 0x00, 0x08, 0x00, 0x00, 0x00, 0x02, 0x00, 0x00, 0x00,
    0x21, 0x00, 0x00, 0x00, 0x73, 0x65, 0x72, 0x76, 0x69, 0x6e, 0x67, 0x5f,
    0x64, 0x65, 0x66, 0x61, 0x75, 0x6c, 0x74, 0x5f, 0x63, 0x6f, 0x6e, 0x76,
    0x32, 0x64, 0x5f, 0x31, 0x35, 0x5f, 0x69, 0x6e, 0x70, 0x75, 0x74, 0x3a,
    0x30, 0x00, 0x00, 0x00, 0x04, 0x00, 0x00, 0x00, 0xff, 0xff, 0xff, 0xff,
    0x08, 0x00, 0x00, 0x00, 0x08, 0x00, 0x00, 0x00, 0x02, 0x00, 0x00, 0x00,
    0xfc, 0xff, 0xff, 0xff, 0x04, 0x00, 0x04, 0x00, 0x04, 0x00, 0x00, 0x00

};

#endif  // NUMBER_MODEL_H
